/**
  ******************************************************************************
  * @file    sine_model_data_params.c
  * @author  AST Embedded Analytics Research Platform
  * @date    Wed May 10 04:58:42 2023
  * @brief   AI Tool Automatic Code Generator for Embedded NN computing
  ******************************************************************************
  * Copyright (c) 2023 STMicroelectronics.
  * All rights reserved.
  *
  * This software is licensed under terms that can be found in the LICENSE file
  * in the root directory of this software component.
  * If no LICENSE file comes with this software, it is provided AS-IS.
  ******************************************************************************
  */

#include "sine_model_data_params.h"


/**  Activations Section  ****************************************************/
ai_handle g_sine_model_activations_table[1 + 2] = {
  AI_HANDLE_PTR(AI_MAGIC_MARKER),
  AI_HANDLE_PTR(NULL),
  AI_HANDLE_PTR(AI_MAGIC_MARKER),
};




/**  Weights Section  ********************************************************/
AI_ALIGNED(32)
const ai_u64 s_sine_model_weights_array_u64[829] = {
  0xbe8a9409be8bc255U, 0xbe883770be8937d1U, 0xbe85680bbe86ad4dU, 0xbe837e3fbe84ac8bU,
  0xbe8121a6be82dd88U, 0xbe7e1b83be805304U, 0xbe78d0e9be7b2d82U, 0xbe73f174be767450U,
  0xbe6edc6cbe7166f0U, 0xbe69c764be6c51e8U, 0xbe65ec24be673ce1U, 0xbe6227d9be64b25dU,
  0xbe5d12d1be5f9d55U, 0xbe57fdc9be5a884dU, 0xbe52e8c2be557345U, 0xbe4dd3babe505e3dU,
  0xbe48beb1be4b4937U, 0xbe44dbcabe46342eU, 0xbe411f26be43a9aaU, 0xbe3c0a1fbe3e94a3U,
  0xbe36f517be397f9bU, 0xbe31e00fbe346a93U, 0xbe2ccb07be2f558aU, 0xbe27b600be2a4084U,
  0xbe22a0f8be252b7cU, 0xbe201674be216ed8U, 0xbe1b016cbe1d8bf0U, 0xbe15ec66be1876e8U,
  0xbe10d75dbe1361e1U, 0xbe0bc256be0e4cd9U, 0xbe06ad4dbe0937d1U, 0xbe019847be0422c9U,
  0xbdfe1b81be005e7eU, 0xbdf3f173bdf9067fU, 0xbde9c761bdeedc6fU, 0xbddf9d55bde4b25fU,
  0xbdd57343bdda884fU, 0xbdcb4934bdd05e3fU, 0xbdc11f27bdc6342fU, 0xbdbc0a1fbdbe9c4aU,
  0xbdb1e00fbdb6f515U, 0xbda7b600bdaccb06U, 0xbd9d8bf0bda2a0fbU, 0xbd9361e1bd9876e6U,
  0xbd8937d1bd8e4cdaU, 0xbd7e1b81bd8422c9U, 0xbd73f172bd78f72dU, 0xbd5f9d57bd69c762U,
  0xbd4b4935bd557342U, 0xbd36f514bd411f24U, 0xbd22a0fbbd2ccb05U, 0xbd0e4cd9bd1876e6U,
  0xbcf3f175bd0422cbU, 0xbcdf9d57bce96b8dU, 0xbcb6f516bccb4936U, 0xbc8e4cd9bca2a0fbU,
  0xbc4b4934bc73f172U, 0xbbf3f174bc22a0faU, 0xbb22a0fbbba2a0fbU, 0x3b22a0fb00000000U,
  0x3ba2a0fc3b78b9f8U, 0x3c22a0fa3bf3f171U, 0x3c73f1713c4b4937U, 0x3ca2a0fa3c8e4cd9U,
  0x3ccb49353cb6f516U, 0x3cf3f1753cdf9d56U, 0x3d0e4cd93d0422c9U, 0x3d1d3f683d1876e8U,
  0x3d2ccb043d22a0fcU, 0x3d411f233d36f513U, 0x3d5573443d4b4934U, 0x3d69c7613d5f9d55U,
  0x3d7e1b813d73f171U, 0x3d8937d13d8422cbU, 0x3d90c0673d8e4cdaU, 0x3d9876e63d9361e1U,
  0x3da2a0fb3d9d8bf0U, 0x3daccb053da7b600U, 0x3db6f5143db1e00fU, 0x3dc11f273dbc0a1fU,
  0x3dcb49373dc6342fU, 0x3dd2e11a3dd05e3fU, 0x3dda884f3dd57345U, 0x3de4b25f3ddf9d54U,
  0x3deedc6f3de9c762U, 0x3df9067e3df3f171U, 0x3e0198473dfe1b81U, 0x3e06ad4e3e0422c9U,
  0x3e0a80e73e0937d1U, 0x3e0e4cd93e0bc255U, 0x3e1361e13e10d75dU, 0x3e1876e83e15ec65U,
  0x3e1d8bf03e1b016cU, 0x3e22a0f83e201674U, 0x3e27b6003e252b7dU, 0x3e2b91403e2a4084U,
  0x3e2f558b3e2ccb07U, 0x3e346a933e31e00fU, 0x3e397f9b3e36f517U, 0x3e3e94a33e3c0a1fU,
  0x3e43a9aa3e411f26U, 0x3e48beb23e46342dU, 0x3e4ca19a3e4b4936U, 0x3e505e3e3e4dd3baU,
  0x3e5573453e52e8c2U, 0x3e5a884d3e57fdc9U, 0x3e5f9d553e5d12d1U, 0x3e64b25d3e6227d9U,
  0x3e69c7643e673ce2U, 0x3e6edc6c3e6c51e8U, 0x3e7166f03e700e8cU, 0x3e767bf83e73f174U,
  0x3e7b91003e79067cU, 0x3e8053043e7e1b83U, 0x3e82dd883e8179a9U, 0x3e85680b3e83d641U,
  0x3e87f28f3e8632daU, 0x3e8937d13e888f73U, 0x3e8c1a583e8aec0cU, 0x3e8e4cd93e8d48a4U,
  0x3e90d75d3e8f921bU, 0x3e9361e13e921c9fU, 0x3e958cbb3e945e6eU, 0x3e97e9533e9731a7U,
  0x3e99bc2a3e9917a0U, 0x3e9c46ae3e9b016cU, 0x3e9ed1323e9dd0d1U, 0x3ea15bb63ea02d6aU,
  0x4694805a568c7a98U, 0x38ae698e83a67137U, 0x773a519e437d906bU, 0xad6b738f688a7f4fU,
  0x5d2a567919cb659aU, 0x61667a8561399b96U, 0x6268346b5ea64c6fU, 0x88493e6f93ad7e14U,
  0xf18066b7595593a7U, 0xa7a2a68054029b70U, 0x4b808c7a416c9361U, 0xac89907a5d44349aU,
  0x3c457f1454a16957U, 0xa8826341683a93a9U, 0xa8983f1291712084U, 0x6272a68288b68d63U,
  0x707b7766df8b6c38U, 0x886e8b1255598408U, 0x8884d6a9488e4872U, 0x5f93427c8c3980a1U,
  0x51168ab53b9d9402U, 0x6f7727c4b285828cU, 0x5b63827465989039U, 0xad708c705f8f9227U,
  0x7a3b6eae6977b7afU, 0x67009d8c806996caU, 0x68c2772a794c5e4bU, 0x3d62895e685655aeU,
  0x46924c4ffbb0498aU, 0x70ac6b76b0aff9b4U, 0x5b96713e5e99939eU, 0x5e836651381a82abU,
  0xa465a6bb72463762U, 0x4b6de99a94886075U, 0x8bb35880ae9d6046U, 0xf2975e564d6f5014U,
  0x38849a8a501863a5U, 0x8f90528854a78d79U, 0xb3944ab88474595dU, 0x759fbab05f1e753bU,
  0x5a776f673bce7769U, 0x68495d97948d8b1dU, 0xa689823a7ea08492U, 0x7bb63d49895f311aU,
  0x5f458f7e733f5e42U, 0x46b631e06985aa6eU, 0x667165461c2b71b6U, 0x6e949d71b9a12e67U,
  0x829793628414488eU, 0x532660ad7d807a4fU, 0x7c275d64976e6c75U, 0x538a2450949b677cU,
  0x9386766b8e9a89bdU, 0x4f70b96b99b3c691U, 0x745fbc9d58505f46U, 0x61b236605757608fU,
  0xe5536d6d627ff394U, 0x4d767b4783832c59U, 0xaa923d3c6ca59c37U, 0xdfb8528f686c285eU,
  0x7d43d0a15aa86c46U, 0x657d75607949512bU, 0xc19d51294f581d4cU, 0x6868525944a09ea2U,
  0x88a68c684969b2b6U, 0x43347fbb4b3b5a1cU, 0x57478599925fafceU, 0x918689a180498670U,
  0xe55242bb3d973f52U, 0x9f7c29744a74648bU, 0x608c8a3f9d6c6302U, 0xa06f97a16f864570U,
  0xa06e487162985760U, 0x58b75f919b5336a6U, 0x36588a8d5a89373eU, 0xbba7679e91266190U,
  0x80b0476b43387674U, 0x835e34b0a06cc489U, 0x51a056278d9241a2U, 0x6169924f2e6b5963U,
  0xf68b6c363a8e9183U, 0x4fa5b94b26cf7373U, 0x47a5339e7a0f8076U, 0xac8f8d21636d3d9aU,
  0x46721d7bba885a8bU, 0x3c144d913443798bU, 0xbb3b56be6796c9abU, 0xa9bc446b80ae3954U,
  0x50c4834979c65675U, 0xe76c54136185be4bU, 0x4b487a913e009892U, 0x7c9b624a452a9989U,
  0xd7ae4ba043613a33U, 0x6e56efa9431b664bU, 0x9e4d9b6b689d7174U, 0x2e22a080634269afU,
  0x7e55d67b3a1c5799U, 0x5e1f94754682b07cU, 0xaa752a2c9963a782U, 0x8855efaa4f862d79U,
  0x60c4494b90685dc0U, 0x5d8d8a70c6bcc794U, 0x6591bca942206875U, 0xa67c9753e355508bU,
  0x2e48828953452551U, 0x7a9b366bba8e5476U, 0x72b2976530808b8fU, 0xbca5861b89293825U,
  0x577c3e8858765077U, 0xa04b4d56769373d7U, 0x2e1ea2805d43988bU, 0x7058c679492c7b73U,
  0xbd74c0629471b3bdU, 0x4649a4926b674a73U, 0xa0469d84551faa58U, 0x76a492524fb78491U,
  0x467b4d6b69817628U, 0x927fceb286b74a83U, 0x69ab7a897e7c4b5dU, 0xdd4647bc6b8b2922U,
  0x60696fa4ab54545bU, 0x7c60445f5758ac83U, 0xa0733a4f4c69de86U, 0x258d62d9ac3da48dU,
  0x7b84b489df9c6266U, 0xa8a7579a5b8c4c8eU, 0x4a7ccb6f61369645U, 0x5e046293597fafc0U,
  0xff8a5dc05b4fc576U, 0x414b8617778d8e53U, 0x903797524d66798cU, 0x63b7ad594d51768bU,
  0x5f83651b75b6448aU, 0x73ad5955d5716367U, 0xd33c3e6c889af173U, 0x7c7adb915419775fU,
  0x8bbc463779567d12U, 0x204a9791756c2943U, 0x388b4f65677f457eU, 0x9b8eab5b5f58a5d6U,
  0x81b8575458542dd5U, 0x6b59d8896e556d7cU, 0xcb817c9c3d9749acU, 0x90665a0268a720b3U,
  0x4344382c9b816941U, 0x86c2577c3f665ab2U, 0xe25952998b72a674U, 0xab65603799776943U,
  0x9c697642279e9aa4U, 0x983e7e5798546535U, 0x633a81c07f1a457eU, 0x793fc2985e319980U,
  0x58ad6780a0c58bb0U, 0xae53288d819b509fU, 0xa0274f8e8e632cb9U, 0xc350589e7b8d7e8eU,
  0x778864b088218959U, 0x6497646c51496e88U, 0xf69959a2723e3f41U, 0x629222aec0818893U,
  0x21319a8e355a9094U, 0xe5535d698f8c8274U, 0x8d9a6954b2657cbaU, 0x77ad3b4941538d8dU,
  0x34913d744bad5875U, 0x5f8f8e612819a082U, 0x4cbe4b6b892f5f71U, 0x5b337e816d8c5a76U,
  0x6b4bcab5381a4291U, 0x7f2c6b60c86d7617U, 0xbdac5570689dd860U, 0x63637e83637f9eabU,
  0xaa7979ae74986452U, 0xdf885fb46157646bU, 0x82b096893c968973U, 0x4121aa4c2cd7b468U,
  0xe394362d8565ac9fU, 0x446c8e50163f8a60U, 0x99474993e9a8566eU, 0xbbae3c2b884859baU,
  0x825fd37d352e8360U, 0x8345545b796d7620U, 0xcca27d725b8b8369U, 0x8e6f42aa6f83bdbaU,
  0x7347473b311f6bb4U, 0x76c1617acbac9bc2U, 0x8d41375e8a8cac88U, 0x5ba2647cdb574baeU,
  0x218591a13e76a259U, 0x988c7c7551106da6U, 0x8861b57b6b684991U, 0x5f726783666e939fU,
  0x60a5fd8264ae5e51U, 0x466368673349a180U, 0x36c3a771bb75e1a0U, 0x713f7556ad646dbeU,
  0x902461849ead8536U, 0x28734c667c776ca2U, 0x6f6ebda979c75957U, 0xb259b79a7fae7c19U,
  0x2d737c71759a1fdaU, 0xacaae2af3ea4705dU, 0x69b664962a8c9c8eU, 0x2c5d9f9d4f5fb6acU,
  0x62582896be794975U, 0x7db07c6973976c42U, 0x722f997a434f9c46U, 0x8e558e884a14857dU,
  0x49575288baaf7baeU, 0x25d0c579929ce19dU, 0x3e758cb356aa9768U, 0xac9b6292fa936341U,
  0x505f66a671422dc3U, 0x9b46df68685a6881U, 0x83894937708a9f31U, 0xd48f4f116d815455U,
  0xb86bf69f54aa4666U, 0x739a57a481465698U, 0xd7744d2275723834U, 0x6847383485a75160U,
  0x51b0364adb969134U, 0x910a6f7a6176d1a6U, 0x6c932ddda58074a2U, 0x341d976661a4a45fU,
  0x41339489584bc97dU, 0xcecb605eaa6e7ab8U, 0x6b79825e7f8f805dU, 0x2e17a09138483763U,
  0x8a935736af646377U, 0x91849da12db58d71U, 0x3b529a7d827f3355U, 0x809e8a969d1b4b8cU,
  0x3e0560ab3bd6976bU, 0x435e6c817c41a599U, 0x70af606279bb5a4bU, 0x56924c9c373a6677U,
  0x2a5069935044d859U, 0x5ea655418f866244U, 0xaa9f434447adbc74U, 0x70aa82545f5d513fU,
  0x9db9a9a281967f65U, 0x5d215a564c60527eU, 0xb08a918965936e61U, 0x6193a0a79f9d5a80U,
  0x7fba5557725192c4U, 0x803b62667489b974U, 0x5e54f09965484773U, 0x5b74829da66ead4aU,
  0x94ae7b1e79436498U, 0x99763f384fa8496cU, 0x7392348b20857eb3U, 0x6dae7c886548555eU,
  0x8b507b9b46c54c66U, 0x79a46e42c690778dU, 0xc3a593c045833b3eU, 0x626b54277dad7b73U,
  0x9dce756c46a2a267U, 0xd592a8c582617085U, 0x82895f478c6f8838U, 0x8ad28256d7a9555bU,
  0x2753a99a9086987dU, 0x314d9a5f861f5865U, 0x3aa0568b3c14a481U, 0xa2608b4d7b848f8cU,
  0x46453080839c997aU, 0x85af7c8b6921a782U, 0xa27e4a4c727cc49cU, 0x99444535b58b6c59U,
  0x36c75b5390796072U, 0x7c609b54c3671aa0U, 0x6e6542509c8a449aU, 0xab975067d98b6c3fU,
  0xa7bc744849526130U, 0x5b4277baa13f4f3fU, 0x8c8ab063564a77aaU, 0x46297d64b9b94671U,
  0x66866e41527e93b8U, 0x86974361a1b08197U, 0x576ba955b986572fU, 0x835ab2aa8ca96697U,
  0x831c6042484f7062U, 0x738c81c04f989dbcU, 0x4390d8946c5b7444U, 0x568a5d56514d706eU,
  0xc5a5888a6280d19fU, 0x8bb053d88e776e93U, 0x5f7233767a51a773U, 0x90894c059484eb9eU,
  0x738e720b929c9358U, 0x5f759c4f436d9194U, 0x616d5d3b8356804aU, 0x447d86ac7914558bU,
  0x5e747d7267b68338U, 0x436264986c61bc7eU, 0x619b3c9ca2b03746U, 0x8b2f803aca71670fU,
  0x8aae923fad5963b7U, 0x92924f347c922e80U, 0x8a6fa96c43c29b68U, 0xa9995833665048d1U,
  0x3d46faf1bd9753b2U, 0xbbd4f96abd8577a9U, 0x3db1d8fcbd0f3895U, 0x3c896370bbde06c6U,
  0x3d973f283d9bb29aU, 0x3d9708453e00c446U, 0x3d87c2a5bd1e43feU, 0x3d17d61e3d63960aU,
  0x3dac77913b3e0fe2U, 0xbd2b45ea3c7d6722U, 0x3d3349513dbc710eU, 0xbd99adbc3af71957U,
  0xbde5e0a63d45c20fU, 0x3d87a0423c01afdbU, 0x3d42fbae3d828339U, 0x3df1c737bd86b37cU,
  0x3d64a14fbd7c8fdcU, 0x3d421fc2bdd8bed5U, 0x3d955caabdb812b1U, 0xbd70f58f3da079c4U,
  0x3dacebddbe207aaeU, 0x3de5ad063dc7fadfU, 0x3d45439b3dcdac6fU, 0x3d8fb32f3d920978U,
  0xbe1dd737bd317087U, 0x3d7995e4bdaf2f1bU, 0xbd01902c3da9dca4U, 0x3e0562efbd27c8fcU,
  0x3cba1740bdecbf0eU, 0x3d462e213df19f84U, 0x3dd5bfa03d30c8fbU, 0xbcb4b4cb3d9c8a09U,
  0x3d022bd1bd650744U, 0xbdb54053bddcfd45U, 0x3d1103153dd331d9U, 0x3c03c9243d8496d7U,
  0x3cf758953d546336U, 0x3c76b8e73dc9d646U, 0x3da7d8ca3d187376U, 0x3de857b13d2cb0b1U,
  0xbd238d1f3da0b2c7U, 0x3cf01b6d3e05799bU, 0xbd5cd55d3e22682fU, 0x3e0521303d76ed64U,
  0x3d1fc7a5bdf037e2U, 0xbc07c43d3dd75e94U, 0xbcbd378c3dac2986U, 0x3d6394fb3d8c6a10U,
  0xbdc072023d5e8164U, 0x3db6b07a3defb6d7U, 0x3de9d0d13d1dc9d1U, 0xbdce7bcb3df2df7eU,
  0x3dcd90d03d19c7e3U, 0x3d4c234abdaa1ff3U, 0xbc22b0bfbd9537c7U, 0x3dcb50023cce4a64U,
  0x3db6affebd447e47U, 0xbd09edf73cca8989U, 0xbd9241db3b4860daU, 0x3d497d03bc054e36U,
  0x3d8cb69abda49ac2U, 0x3d8140a63e043c7fU, 0x3d68813b3c8dfbd7U, 0x3d97e3afbdc49221U,
  0xbdaf4d823d97c566U, 0x3d826dc9bc19f49eU, 0xbdef284e3d813d7fU, 0xbd506e253d567a17U,
  0x3d176a2f3cc0921dU, 0x3d5ecc373dc1af4bU, 0x3de62a5cbccb04eaU, 0x3e0841df3da27f68U,
  0x3bda6b923d082666U, 0x3d99fc3a3de8600bU, 0x3d3560323d5dbd6aU, 0x3dc415d63d657dfeU,
  0x3cb1209dbce7c5a2U, 0x3da8192d3d5fdbc1U, 0xbdc8743e3dd2c05dU, 0xbc01e8373db0a0b8U,
  0xbcb6e4cebe3e42e6U, 0xbdb6a6dc3d583b5dU, 0x3d280d4fbc534f2aU, 0x3dd2142cbcad2870U,
  0xbd2a659e3cf7cc4fU, 0x3daa0173bcda0d92U, 0x3be8cba13d0bb860U, 0xbe66ed113d04c27eU,
  0x3d5f18b23d860969U, 0xbd1210963d8f0c14U, 0xbd598f323a96e03bU, 0x3df737313d8e3872U,
  0x3d1c4b603d7ee866U, 0x3d067b263d810cf0U, 0x3d1248a03e1529d5U, 0xbd28403c3d8bf740U,
  0x3dd5e1163d8b9cc2U, 0xba5909f33d9b6cb0U, 0x3ddc02d63d5142eaU, 0xbd9cef863d5c01f0U,
  0x3d7f723b3d990402U, 0xbd659dbbbe1f3da2U, 0xbdae50443c7133e4U, 0xbc24c6aa3d526f8cU,
  0x3d2706363d62aeb2U, 0x3d893a1f3cd5021cU, 0x3dc6f8733d7a5f2fU, 0x3d55b02f3c7a1aa5U,
  0x3ddbbc5a3bacfe08U, 0x3d48a6013beb0100U, 0xbd7192f13d3dd2feU, 0x3ce6016a3d2dd1c3U,
  0xbc61de243d0547efU, 0x3e15acaa3d6f56aaU, 0xbd528d86bd3bf807U, 0x3d89d5913b982397U,
  0x3d30cf42bcc3ed5aU, 0x3dee3881bb0ae06fU, 0x3d2b90913ba47facU, 0x3d253a2dbe524f86U,
  0xbd5ff5273d981063U, 0x3d83be21bd50dd26U, 0x3dce3b6cbd64038eU, 0xbd967ff73dd972a2U,
  0x3c067d633de5a6fbU, 0x3c1c79b5bc84fa91U, 0x3df7e571bdd77592U, 0x3d36e4f5be21b813U,
  0x3dd6bab23d9ab8abU, 0x3cff94e73db21c82U, 0x3e0a47923b880461U, 0x3dd0b3b53d4cce14U,
  0x3d7e7de13dbf53d8U, 0x3daab6b13cfaf4d6U, 0x3c9d1ca43de7162bU, 0x3d2d0a233daed664U,
  0xbd6cdaaabdd6c10aU, 0x3d6a8d76bd6c0f74U, 0x3ddb0e59bd66b272U, 0x3d5b009c3db34cdbU,
  0x3d5cc1a23daff3cbU, 0x3dc14a613da214a3U, 0x3d67023f3d5bbcf1U, 0xbbe5d6a73cbbd611U,
  0xbe13a6943d971b6bU, 0x3d565fbc3d7010f3U, 0x3df184753e09e74eU, 0x3c1b16be3ceca535U,
  0xbdb551233d6efe1dU, 0x3d81fc363d9b3eceU, 0xbd0efd1b3bef8f9fU, 0x3daed01d3de072f6U,
  0xbd2bc2ad3d8f0c8eU, 0x3dbf12193df21012U, 0xbcd70fbe3d485db4U, 0x3d9ef20abd3d417dU,
  0x3d6d076dbd86e291U, 0x3decc4ba3c34127eU, 0x3d8ad4ea3d58ed49U, 0x3d43be343d88d7b1U,
  0x3e083a923d91b19fU, 0x3cd12624be0b24e6U, 0xbb8a93b63ba2fb2dU, 0xbd780a4fbc04f7e7U,
  0x3d25ac1c3d85ba46U, 0x3dc226f8bd7b1d6bU, 0x3e0c9bfd3d706b72U, 0xbdddcab63d7e86b7U,
  0x3df19f2abd2ea76dU, 0x3db187ee3e11af70U, 0xbe37f7543d80bc02U, 0x3cf5a8083d362e5bU,
  0x3e29bff6be01d37cU, 0x3e1d1c983d8b1a51U, 0x3db08776bd843114U, 0xbd955619bd7028c3U,
  0x3d6fcd8e3de675beU, 0x3d2306593deb1ad0U, 0xbdbe797e3dce843cU, 0xbc4d49df3d60d139U,
  0x3d2efb523d97899cU, 0x3e22a8cb3dad5671U, 0x3dd1e9073dcd9912U, 0x3df927f83dd6a4b2U,
  0x3d8c6f5a3e1aca8fU, 0x3c00f0203ddf884dU, 0x3ddeed313d70b0bfU, 0x3c89fe483d8cf3e2U,
  0x3dd5cbbe3d39f151U, 0x3dc0915e3d57580dU, 0xbab4c6bcbbb4c6caU, 0xbd3aa0003d2dedb4U,
  0x3ddb819d3d645866U, 0xbdaf3eecbd27e646U, 0x3d4fd0ea3d743479U, 0x3dc7dfd33d8d83d6U,
  0x3c814797bd85b856U, 0xbdf2a1d93d8b167bU, 0x3cb9f5c33ded0969U, 0x3ca00d53bce57ab5U,
  0xbdebb59bbd471e98U, 0x3e1e8679be207b59U, 0x3e8cd1083d0cd2d3U, 0x3e16f265bdf1ed4eU,
  0xbe1201663e5bb510U, 0xbe61eef4be67d799U, 0x3e03e6e8bebbbfe8U, 0xbe15be4f3e49586aU,
  0x3e0f06183e0dcd9cU, 0xbe75c0b73e0c03b2U, 0xbea43303bd6af90cU, 0xbdb9f8f03dd56cd6U,
  0xbe0bc75dbe85577bU, 0x3e3c6ff43e806bd3U, 0xbd7e185c3e829f27U, 0xbe14d5713db88c37U,
  0xbe217da73dc7f3a2U, 0xbd8c889cbe7de4e7U, 0xbeca48d93e40bd8bU, 0x3e692befbec6cd5bU,
  0x3e59cf38be3b1832U, 0xbe42c9c93dc89058U, 0xbe748df5be5cd4f0U, 0xbe9c40f23e57d5cbU,
  0x3e30d8f7be909a44U, 0xbdf1ed8bbdf8b213U, 0x3e52865abe3bcd33U, 0x3df71ee13ddf03d6U,
  0xbe70c701be03b2cbU, 0x3df881173e1c5b83U, 0x3e417bd13e861d2aU, 0x3cec578e3e0c4decU,
  0xbd5e7af1be1391b3U, 0x3d954dcfbe45a857U, 0xbdaf6ffd3e5c8147U, 0x3e4213b0bd9eb26dU,
  0x3d911586be08ee31U, 0xbe2e9992beb36c66U, 0xbddcd20d3de0428cU, 0xbe6f16e03e270510U,
  0xbd81d40cbe8c421bU, 0xbe52f8df3e05e0f1U, 0xbe6c98aa3de01b28U, 0x3e28a3e23dfe1fbfU,
  0x3d717d703e3ccd2fU, 0xbe662a213e3a72b0U, 0xbea62b3a3dd87dd3U, 0xbd8af7773e2cc971U,
  0xbdf6a6593e0d4091U, 0x3e34cf803e1defafU, 0x3de014ddbdaafb22U, 0xbe466266be47ff94U,
  0x3d719cd23e2c9663U, 0xbeec6cc93d2223d4U, 0x3e504157be3463c4U, 0xbe81c7223e7bd4c9U,
  0x3decb27d3e4bc49dU, 0xbe4701c8bebe4aefU, 0x3e302a203de8f4f4U, 0xbec7e005be773310U,
  0x3e63efcabe86531dU, 0xbe6bcc4d3ddee71eU, 0xbcd252f2beb64e85U, 0x3e311b823e57645eU,
  0x3da259dcbe7d044cU, 0xbe436e12beb7bb83U, 0xbe91ab9fbe9d4bf4U, 0x3e412324be8e6663U,
  0xbdc678ddbe6b6411U, 0x3e38e6e63e141d3cU, 0x3e52f7353dcf775dU, 0xbe19709e3e782f67U,
  0xbe16e3973d0a551dU, 0x3e3a47dabe06daacU, 0xbe1a00e9be939f62U, 0x3e67feae3dd3b08eU,
  0x3e2a6d8ebe9ec7edU, 0x3deccd0c3dcca3d1U, 0x3e6f14eabe583ad8U, 0xbe0cf5493e1fa60eU,
  0x3d5548353e20fb36U, 0xbda1d063be88b47eU, 0xbec2cb143e296450U, 0xbe6a27773d4aa62bU,
  0xbe159fc4be8096d9U, 0xbe7b882abee2f12dU, 0x3e172e5a3e27f70eU, 0x3e28c8acbe20dd06U,
  0xbdd37f033e3e9ad4U, 0xbd99e7b2be83c571U, 0xbe0efb6ebea4c115U, 0x3e30d0083e4b0d76U,
  0xbe33bc2e3d1ed350U, 0xbcc8b5023e4a4149U, 0x3e3c5171be17ede7U, 0xbeae0dd93e898e50U,
  0x3e01618a3dff10c6U, 0xbe26a08cbde5b3ebU, 0x3e883b4f3e240d41U, 0x3db2a4593d9ba286U,
  0x3dcfd3b5be43d1b5U, 0x3e3518b23e9256b6U, 0xbe63026a3dff1fe8U, 0xbd5ca3a3be136406U,
  0x3df2b406bdab9cafU, 0xbe733ab33d3bf22dU, 0x3e53f8db3e58497aU, 0xbd96f313be5a03a9U,
  0x3e8522be3e3ca622U, 0x3d8cc2c53e16dabaU, 0x3db7771abe287874U, 0x3da5db463e3604a3U,
  0xbe5ac68cbebb16e6U, 0xbe489f85be8a3253U, 0xbd8b33a63d20d634U, 0xbe0abed63e1022caU,
  0x3e28ee72bdbca01cU, 0xbe5a94a9be57bbf3U, 0xbe983640be2a27c6U, 0xbe66fab03e7cc9f6U,
  0xbdd80423bec33303U, 0xbdd965debd2539beU, 0x3e0af68b3e340183U, 0x3e14c959be5c247dU,
  0xbe6cfec23e373a19U, 0x3e2e0b82be2059e8U, 0x3e06f8c1be576324U, 0x3ca54b7c3e8e3a2dU,
  0x3e531cc5be7e43f0U, 0x3dedff65be2ada2cU, 0xbe24185f3e30f723U, 0x3e063d28bdf4d1abU,
  0xbe303083be124adeU, 0x3ded4e473e73611cU, 0x3e034083be11766bU, 0x3e42272abe16bce6U,
  0xbd4b6a0e3e2cbe90U, 0x3d75ebb0bde84912U, 0xbe0259d4be9d2e57U, 0x3e39aa6fbe701c14U,
  0xbeb8d197bd9ef5b4U, 0x3e5bd53e3e085f7aU, 0xbe12140fbe41c7e0U, 0xbedbc5e93da38eaaU,
  0xbe6c68a0be70f435U, 0xbed4c6b23e838cafU, 0xbe6c198c3e619805U, 0x3ddf4db8be975c92U,
  0x3d9292b73e050bedU, 0x3e591657bec10f19U, 0x3e12ec2c3d8a2623U, 0x3e88bcb03dcd0bd0U,
  0x3e0a45dc3dd0c71cU, 0x3dcf57ca3e5a6e8fU, 0x3e3ec09ebe0f9d2cU, 0x3e02ef4fbea9084bU,
  0x3e11c924bdfde184U, 0x3dc73097bdb7b6e2U, 0x3dcb1d953e56194cU, 0xbd3e13023e412373U,
  0x3e01e5f3bd98b039U, 0xbd17ed7abde02287U, 0xbdf8edacbd79bfc9U, 0x3d90cedabe4ff83dU,
  0xbdc78c46be9888cdU, 0xbdfef1ab3e844eb0U, 0x3e4bcb143d885ca8U, 0x3e23a7e83e2f6383U,
  0xbe31ed0bbec24ba7U, 0xbe20154f3e374bfbU, 0x3e6a79e23e257027U, 0xbe417e01bd939c9eU,
  0xbe45ea51be3a1cccU, 0x3e277685be3b9459U, 0x3e1f12a5be08424aU, 0xbe5d9a0dbe1648d5U,
  0x3e02de853e879306U, 0xbe41a9c0be1d4093U, 0x3d8091753e408366U, 0x3ddf16323e83cb40U,
  0xbec845dc3e57734bU, 0xbe6a1b853e888d69U, 0x3e4849d0be2f6ca9U, 0x3e1b97bf3e714df5U,
  0xbd508ba33e1a83dbU, 0x3db17ddd3e7348e2U, 0x3dd15770bd993442U, 0xbdfc5a41be4e6f0bU,
  0x3e057a9fbea94e93U, 0xbda854e4be61af7fU, 0x3dc64eba3e1d1bafU, 0xbea18388be91d482U,
  0x3e38a3db3e6be187U, 0xbd925b9a3d33ceddU, 0xbe1b15a6be7008e5U, 0x3e195365bda23edaU,
  0xbedcdb093e09a246U, 0x3e7d8cd5be172aa4U, 0x3e0cc6823e631c68U, 0xbe258b373e796ba5U,
  0xb9d919c3U,
};


ai_handle g_sine_model_weights_table[1 + 2] = {
  AI_HANDLE_PTR(AI_MAGIC_MARKER),
  AI_HANDLE_PTR(s_sine_model_weights_array_u64),
  AI_HANDLE_PTR(AI_MAGIC_MARKER),
};

