/**
  ******************************************************************************
  * @file    test3_data_params.c
  * @author  AST Embedded Analytics Research Platform
  * @date    Wed May 10 04:29:16 2023
  * @brief   AI Tool Automatic Code Generator for Embedded NN computing
  ******************************************************************************
  * Copyright (c) 2023 STMicroelectronics.
  * All rights reserved.
  *
  * This software is licensed under terms that can be found in the LICENSE file
  * in the root directory of this software component.
  * If no LICENSE file comes with this software, it is provided AS-IS.
  ******************************************************************************
  */

#include "test3_data_params.h"


/**  Activations Section  ****************************************************/
ai_handle g_test3_activations_table[1 + 2] = {
  AI_HANDLE_PTR(AI_MAGIC_MARKER),
  AI_HANDLE_PTR(NULL),
  AI_HANDLE_PTR(AI_MAGIC_MARKER),
};




/**  Weights Section  ********************************************************/
AI_ALIGNED(32)
const ai_u64 s_test3_weights_array_u64[1601] = {
  0x3bf3f1743d9d8bf0U, 0xbd9876e83d4b4936U, 0x3cb6f517bd8422c9U, 0xbde4b25d3d8e4cd9U,
  0xbc4b4936be15ec65U, 0x3cf3f1743ddf9d55U, 0xbcf3f1743d5f9d55U, 0xbe1361e13e0422c9U,
  0x3d73f174bcdf9d55U, 0xbdf3f1743c73f174U, 0xbdb1e00f3dbc0a1fU, 0x3b22a0f8be0e4cd9U,
  0x3ca2a0f8bdbc0a1fU, 0xbd0422c93d36f517U, 0xbbf3f1743d69c764U, 0x3e019846bcdf9d55U,
  0xbd22a0f83da7b600U, 0xbe5d12d13e48beb2U, 0xbd9876e83ba2a0f8U, 0xbd73f174be346a93U,
  0x3daccb073d9361e1U, 0xbd4b4936be10d75dU, 0x3bf3f1743d0e4cd9U, 0xbd4b4936bd1876e8U,
  0xbdc6342ebc8e4cd9U, 0xbd69c7643ddf9d55U, 0xbe1d8bf0bcdf9d55U, 0xbd411f26bd0422c9U,
  0x3c8e4cd9be673ce1U, 0x3d8937d13e019846U, 0xbe0422c9bc8e4cd9U, 0x3d22a0f8bdd57345U,
  0x3d8937d13de4b25dU, 0xbd8937d1bd9d8bf0U, 0xbd1876e83e1876e8U, 0x3e90d75d3cb6f517U,
  0x3daccb07bc73f174U, 0xbda2a0f8be8937d1U, 0x3ddf9d553cb6f517U, 0x3de4b25d3dd05e3eU,
  0x3d8937d1bd4b4936U, 0xbdfe1b83bccb4936U, 0x3d4b49363bf3f174U, 0xbdcb49363cb6f517U,
  0xbe1d8bf03da7b600U, 0xbd73f174bdeedc6cU, 0x3d73f1743bf3f174U, 0x3dfe1b833d2ccb07U,
  0xbcf3f174bd9361e1U, 0xbda2a0f83dcb4936U, 0x3ca2a0f8be673ce1U, 0xbe0937d1bde9c764U,
  0x3d8937d13deedc6cU, 0xbd0422c9be0e4cd9U, 0xbd36f517bdfe1b83U, 0x3de9c7643cdf9d55U,
  0xbe4b49363d0422c9U, 0x3d7e1b83bc4b4936U, 0xbe019846be6c51e8U, 0x3de9c7643d9d8bf0U,
  0x3d557345bd36f517U, 0x3d22a0f83e15ec65U, 0x3ddf9d553cdf9d55U, 0xbd411f26bc22a0f8U,
  0xbccb4936be1361e1U, 0x3e767bf83d411f26U, 0x3b22a0f8bd1876e8U, 0xbc73f1743c22a0f8U,
  0x3d0422c9be82dd88U, 0xbd9d8bf0bd8937d1U, 0x3d411f26be6c51e8U, 0x3d22a0f8bca2a0f8U,
  0xbdda884dbc22a0f8U, 0xbdda884d3d5f9d55U, 0x3e6227d93deedc6cU, 0x3d22a0f83d0422c9U,
  0x3cb6f5173dcb4936U, 0x3d4b4936be10d75dU, 0xbdf9067c3c4b4936U, 0xbd5f9d553d8937d1U,
  0x3d8e4cd9be8937d1U, 0xbe0bc2553db6f517U, 0x3d36f5173e1361e1U, 0xbdb1e00fbe64b25dU,
  0x3cdf9d553d4b4936U, 0x3e0bc2553d0e4cd9U, 0xbe3c0a1f3e36f517U, 0xbc8e4cd93b22a0f8U,
  0x3d73f174be10d75dU, 0xbd22a0f83d9d8bf0U, 0x3cdf9d55bba2a0f8U, 0xbd7e1b83bd36f517U,
  0x3d8422c9be3c0a1fU, 0xbd5f9d553d69c764U, 0x3d4b4936bc73f174U, 0x3e019846bc73f174U,
  0x3e1876e83e06ad4dU, 0xbcf3f1743b22a0f8U, 0xbca2a0f83e0422c9U, 0x3bf3f174be0bc255U,
  0x3d9361e13e46342eU, 0x3cb6f517bcf3f174U, 0x3db6f5173d4b4936U, 0xbd0e4cd9be8bc255U,
  0xbd69c764bdcb4936U, 0x3ba2a0f8bdc6342eU, 0x3b22a0f8be346a93U, 0xbd0422c93e31e00fU,
  0xbd9d8bf03e0422c9U, 0xbd0422c9bd9876e8U, 0x3d2ccb07bd69c764U, 0xbe06ad4dbd411f26U,
  0xbdd573453d36f517U, 0x3e9c46ae3e0937d1U, 0xbdc6342ebdbc0a1fU, 0xbde4b25d3d8422c9U,
  0x3e99bc2a3e10d75dU, 0x3e0937d13e06ad4dU, 0xbcdf9d5500000000U, 0xbc73f1743dfe1b83U,
  0x3d8937d13dbc0a1fU, 0xbd69c7643da2a0f8U, 0xbc4b4936be0422c9U, 0xbd7e1b833d9361e1U,
  0x3cdf9d553df9067cU, 0xbe1361e1be5a884dU, 0xbd1876e8bdb1e00fU, 0xbd69c7643cf3f174U,
  0xbe15ec65bd411f26U, 0xbc22a0f8bde4b25dU, 0x3ddf9d553e22a0f8U, 0x3dd57345bd22a0f8U,
  0xbd557345bb22a0f8U, 0x3d8e4cd93d22a0f8U, 0x3e87f28f3da7b600U, 0xbdcb4936bcb6f517U,
  0xbd557345bde4b25dU, 0x3e0422c93db6f517U, 0xbd8e4cd93cb6f517U, 0x3d411f263e0e4cd9U,
  0xbdb6f517be673ce1U, 0xbdc11f26bc8e4cd9U, 0xbd69c764bd9876e8U, 0x3e921c9f3d9876e8U,
  0xbd36f5173dda884dU, 0xbdb6f517be5f9d55U, 0x3da7b6003d36f517U, 0xbe1361e13d0422c9U,
  0x3d5573453ba2a0f8U, 0xbda2a0f83de4b25dU, 0xbdaccb073d22a0f8U, 0x3d69c7643d73f174U,
  0xbd8937d1bd73f174U, 0x3d0422c9bba2a0f8U, 0xbdd05e3e3e1b016cU, 0x3e0e4cd93d8e4cd9U,
  0xbb22a0f8be0bc255U, 0xbd5f9d55be505e3eU, 0x3e2016743e0937d1U, 0xbb22a0f83dc11f26U,
  0x3b22a0f8bcf3f174U, 0xbe0bc2553e4dd3baU, 0xbc8e4cd9bd0e4cd9U, 0xbd8422c93b22a0f8U,
  0x3d411f26be52e8c2U, 0x3d8e4cd93d557345U, 0xbd73f1743d9876e8U, 0xbd0422c9bdd57345U,
  0x3d0422c93d8422c9U, 0x3c8e4cd93dc6342eU, 0x3cdf9d55be0e4cd9U, 0x3ddf9d553d2ccb07U,
  0xbe22a0f8be5a884dU, 0x3d2ccb07bd5f9d55U, 0xbe06ad4dbdd57345U, 0x3c22a0f83e15ec65U,
  0xbd69c764bdf9067cU, 0xbbf3f174be019846U, 0x3d69c7643c8e4cd9U, 0xbd5f9d55bde9c764U,
  0x3df3f174bca2a0f8U, 0xbcf3f1743d0e4cd9U, 0xbe22a0f83e79067cU, 0xbde4b25d3e15ec65U,
  0xbc4b49363e15ec65U, 0xbe557345be31e00fU, 0xbd22a0f8bde4b25dU, 0xbd1876e8bc4b4936U,
  0xbe2a4084bd0e4cd9U, 0x3e1d8bf03dcb4936U, 0x3db6f517bc4b4936U, 0xbca2a0f83d8e4cd9U,
  0xbdda884d3d5f9d55U, 0x3d0422c9be673ce1U, 0x3d8937d1bd411f26U, 0x3cdf9d553d9876e8U,
  0x3bf3f174bdbc0a1fU, 0x3c73f1743cb6f517U, 0xbd5573453e019846U, 0xbda7b600be3e94a3U,
  0xbccb4936bb22a0f8U, 0x3d9876e8bca2a0f8U, 0xbd73f174bd2ccb07U, 0x3c4b4936be3c0a1fU,
  0xbd0e4cd93c4b4936U, 0x3d8e4cd93daccb07U, 0xbe43a9aabdb6f517U, 0xbda7b6003d36f517U,
  0x3d2ccb073e27b600U, 0x3d5f9d553da7b600U, 0xbcdf9d55U, 0x3d8937d13d1876e8U,
  0x3e3c0a1f3d7e1b83U, 0x3da2a0f83e0e4cd9U, 0x3e1d8bf0bcdf9d55U, 0xbdbc0a1fbc73f174U,
  0xbd5f9d55bde4b25dU, 0xbd8e4cd9bdb6f517U, 0x3e252b7c3db6f517U, 0xbba2a0f8bd5f9d55U,
  0xbd5573453d69c764U, 0xbd9361e1bd9361e1U, 0xbe1876e8bd557345U, 0xbd4b49363e0bc255U,
  0x3e9361e13d8e4cd9U, 0xbd411f263ca2a0f8U, 0xbcb6f517bcb6f517U, 0x3e82dd88bda7b600U,
  0xbe2f558bbd8937d1U, 0x3cf3f1743cf3f174U, 0x3c22a0f8bddf9d55U, 0xbdc11f2600000000U,
  0x3db1e00fbe15ec65U, 0xbccb49363dda884dU, 0xbe06ad4dbe0937d1U, 0x3df3f1743d8422c9U,
  0xbe397f9bbd69c764U, 0xbd0422c9bccb4936U, 0xbdaccb073d69c764U, 0x3e767bf83e1b016cU,
  0xbccb4936bde4b25dU, 0xbd8422c93de9c764U, 0x3e52e8c23dcb4936U, 0x3c73f174bdf3f174U,
  0xbdb1e00fbe31e00fU, 0x3ba2a0f8bdd57345U, 0xbb22a0f8bd557345U, 0xbd22a0f83c73f174U,
  0xbe52e8c2bdc6342eU, 0xbdbc0a1fbd8e4cd9U, 0xbdb1e00fbe36f517U, 0x3e2f558b3db6f517U,
  0x3dbc0a1f3dd05e3eU, 0xbdeedc6c3dc6342eU, 0xbdaccb07bd8937d1U, 0xbd0422c9bd0422c9U,
  0x3e0bc2553e15ec65U, 0xbdd57345bcf3f174U, 0x3d4b4936bd0422c9U, 0x3d22a0f83ddf9d55U,
  0xbd8422c9be557345U, 0xbdcb4936be0bc255U, 0x3ca2a0f83e22a0f8U, 0xbdf3f174be1d8bf0U,
  0x3e06ad4d3e4dd3baU, 0x3d8422c9bd5f9d55U, 0x3d0e4cd93da2a0f8U, 0xbd9361e1bddf9d55U,
  0x3d1876e8bc73f174U, 0x3cb6f517bdd57345U, 0x3d2ccb073dcb4936U, 0x3d7e1b833d1876e8U,
  0xbe019846bdaccb07U, 0xbe06ad4d3d9876e8U, 0xbdf9067c3e22a0f8U, 0x3e82dd88bdaccb07U,
  0xbd2ccb073d411f26U, 0xbdd05e3ebba2a0f8U, 0xbe36f517bba2a0f8U, 0x3dc11f263c4b4936U,
  0xbd36f517be8937d1U, 0x3db6f517bccb4936U, 0x3d36f517be019846U, 0xbd5573453d4b4936U,
  0xbde9c764bc73f174U, 0xbc8e4cd93d1876e8U, 0x3d9876e83dcb4936U, 0x3dc6342ebc8e4cd9U,
  0xbd9361e1bd557345U, 0xbd411f263d9d8bf0U, 0xbdda884dbc4b4936U, 0x3dc6342ebca2a0f8U,
  0xbe1876e83ddf9d55U, 0x3daccb07bda7b600U, 0xbd5f9d553d7e1b83U, 0xbd8e4cd93e1876e8U,
  0xbe15ec65be0422c9U, 0xbd8422c93d2ccb07U, 0x3d36f5173d557345U, 0xbe1876e8bd8e4cd9U,
  0xbd4b49363d73f174U, 0x3d7e1b83be3e94a3U, 0xbd0e4cd93dbc0a1fU, 0x3e22a0f83de4b25dU,
  0xbba2a0f8U, 0xbdf3f174be1361e1U, 0xbddf9d55bcdf9d55U, 0x3cb6f5173e0937d1U,
  0x3e36f5173d2ccb07U, 0x3dc6342ebccb4936U, 0xbe1d8bf03e0937d1U, 0x3cf3f174bd69c764U,
  0xbdfe1b833dd05e3eU, 0x3d5573453d8422c9U, 0xbd9876e8be3c0a1fU, 0xbdb1e00f3dc6342eU,
  0xbd8937d1bd36f517U, 0xbe2a4084bcdf9d55U, 0x3d8422c9bdbc0a1fU, 0xbd4b4936bcf3f174U,
  0x3d7e1b833cf3f174U, 0xbe0e4cd93d5f9d55U, 0xbccb4936be1876e8U, 0x3e9731a73d411f26U,
  0xbbf3f174bbf3f174U, 0xbe3e94a33e505e3eU, 0x3e1d8bf0bdcb4936U, 0xbdbc0a1f3dda884dU,
  0x3cb6f51700000000U, 0x3bf3f174be73f174U, 0xbe2016743dbc0a1fU, 0xbddf9d553dda884dU,
  0xbe06ad4d3da7b600U, 0xbd36f517bcb6f517U, 0x3d557345be48beb2U, 0x3dfe1b833d69c764U,
  0xbd8422c93d411f26U, 0x3e2016743d22a0f8U, 0xbe52e8c23c22a0f8U, 0xbde4b25dbc22a0f8U,
  0x3ba2a0f83d411f26U, 0xbe1d8bf0bdf3f174U, 0xbdc11f263d7e1b83U, 0xbe0937d1be673ce1U,
  0x3e43a9aa3df9067cU, 0xbd0e4cd93d9361e1U, 0xbd9876e83e2a4084U, 0x3e22a0f8be0bc255U,
  0xbe10d75dbda2a0f8U, 0x3cb6f5173e0422c9U, 0xbdeedc6cbcdf9d55U, 0x3deedc6c3e252b7cU,
  0xbd9876e8bb22a0f8U, 0x3ba2a0f83e3c0a1fU, 0x3cf3f174bdd57345U, 0xbdb6f5173e36f517U,
  0x3e2a4084bdcb4936U, 0xbd4b49363d0e4cd9U, 0xbda2a0f8be69c764U, 0x3e85680bbccb4936U,
  0x3d9d8bf03d8422c9U, 0xbe0422c9be8bc255U, 0x3bf3f1743d7e1b83U, 0xbdcb4936bdda884dU,
  0x3da2a0f83d2ccb07U, 0xbde9c764be346a93U, 0xbd411f26bdd05e3eU, 0x3c4b49363daccb07U,
  0xbe0e4cd9be201674U, 0xbdf3f174bd4b4936U, 0xbdcb49363dc6342eU, 0x3e64b25d3e0422c9U,
  0xbd1876e8bdcb4936U, 0xbdf3f174be57fdc9U, 0x3e8e4cd93deedc6cU, 0xbca2a0f8bd9876e8U,
  0xbc4b4936bba2a0f8U, 0xbd0422c93db6f517U, 0x3daccb07bcdf9d55U, 0x3dbc0a1fbdc11f26U,
  0xbcf3f1743e06ad4dU, 0xbd36f517bdf9067cU, 0x3dc6342e3cb6f517U, 0xbe2a4084be46342eU,
  0xbd9361e13da2a0f8U, 0xbe0e4cd9be557345U, 0x3e6227d93c22a0f8U, 0x3c8e4cd9bd9d8bf0U,
  0x3e0937d13c4b4936U, 0xbde4b25d3cdf9d55U, 0x3d8e4cd9bb22a0f8U, 0xbd69c764be4dd3baU,
  0x3de4b25d3cdf9d55U, 0x3da2a0f8bd36f517U, 0xbe346a93be2f558bU, 0x3df3f174bb22a0f8U,
  0xbe2ccb073ba2a0f8U, 0xbdbc0a1f3d1876e8U, 0x3e8e4cd93df3f174U, 0x3d22a0f8bd9d8bf0U,
  0xbd73f1743e2ccb07U, 0x3d73f174bd0422c9U, 0xbdd57345bdcb4936U, 0xbd5573453e36f517U,
  0x3e3e94a33d8e4cd9U, 0x3e3c0a1f3e252b7cU, 0x3d36f517bc73f174U, 0xbd73f1743d557345U,
  0xbd0422c9bb22a0f8U, 0xbdf9067cbe4b4936U, 0x3e252b7c3deedc6cU, 0xbd22a0f83d7e1b83U,
  0xbdb6f5173d411f26U, 0x3e805304bd9d8bf0U, 0x3d9876e8bda7b600U, 0x3ddf9d553c4b4936U,
  0xbe411f26bdb1e00fU, 0xbda7b600bde9c764U, 0x3cdf9d553d2ccb07U, 0xbe2a4084bdda884dU,
  0xbda2a0f800000000U, 0x3e2016743d5f9d55U, 0xbe1876e8bcdf9d55U, 0x3bf3f1743daccb07U,
  0x3d411f263d69c764U, 0xbe252b7c3cb6f517U, 0x3d9876e8bd22a0f8U, 0xbc22a0f83e0bc255U,
  0xbe1361e1be411f26U, 0x3d2ccb07be36f517U, 0x3d1876e8be57fdc9U, 0x3e252b7c3dda884dU,
  0xbdb6f5173b22a0f8U, 0xbd8e4cd900000000U, 0xbe0422c93d22a0f8U, 0xbd9361e13c4b4936U,
  0xbbf3f1743e64b25dU, 0x3d8937d1U, 0xbdc11f26bd9876e8U, 0x3dc6342ebdcb4936U,
  0x3d9d8bf03d411f26U, 0xbd73f174bdf3f174U, 0x3dd05e3e3cb6f517U, 0xbe2a4084be505e3eU,
  0x3c22a0f8bbf3f174U, 0xbdd57345be2f558bU, 0x3e3c0a1f3ba2a0f8U, 0xbc73f174bd8e4cd9U,
  0x3e0e4cd93e27b600U, 0x3d8e4cd9bc4b4936U, 0x3e2ccb07bd411f26U, 0x3e27b600bba2a0f8U,
  0xbdd05e3ebbf3f174U, 0xbcdf9d55bd0e4cd9U, 0x3dd573453d8422c9U, 0xbde4b25dbdd57345U,
  0x3df3f174bd8e4cd9U, 0xbd9d8bf0be4dd3baU, 0x3db6f5173d0422c9U, 0x3dc6342ebde4b25dU,
  0x3d0422c93d7e1b83U, 0xbdbc0a1f3e1876e8U, 0x3d8422c9bdaccb07U, 0x3dd57345U,
  0xbe397f9bU, 0xbcf3f1743ccb4936U, 0xbdc11f26bcdf9d55U, 0xbde4b25d3c22a0f8U,
  0xbdd05e3e3cf3f174U, 0x3d1876e83e1876e8U, 0x3e4dd3ba3e0bc255U, 0x3d8422c93ca2a0f8U,
  0xbdcb4936bd73f174U, 0x3c8e4cd93c4b4936U, 0x3bf3f1743d2ccb07U, 0xbcf3f1743df9067cU,
  0xbe36f517be46342eU, 0xbcdf9d553d411f26U, 0xbddf9d553e252b7cU, 0x3e7166f0bde4b25dU,
  0xbda2a0f8bd7e1b83U, 0x3df9067cbda2a0f8U, 0xbc8e4cd93dd57345U, 0xbd557345bcf3f174U,
  0x3dfe1b833cf3f174U, 0xbd9361e1bd8e4cd9U, 0xbdeedc6cbd5f9d55U, 0x3c4b4936bd557345U,
  0x3e73f1743d1876e8U, 0xbdc6342ebcf3f174U, 0xbe0e4cd9bdbc0a1fU, 0x3dc6342ebbf3f174U,
  0x3dd573453d557345U, 0x3dfe1b83be06ad4dU, 0xbd411f263e69c764U, 0xbe411f263d557345U,
  0xbd411f26bd1876e8U, 0x3e767bf83db1e00fU, 0x3e10d75d3d2ccb07U, 0x3c22a0f83d0422c9U,
  0xbdc6342e3d5f9d55U, 0xbd7e1b833d4b4936U, 0xbd9361e13da7b600U, 0x3de9c7643de4b25dU,
  0x3d9361e1bde9c764U, 0xbd4b4936be1876e8U, 0x3e48beb2bc8e4cd9U, 0xbdd05e3e3c4b4936U,
  0x3e06ad4d3e2ccb07U, 0xbd8937d13ca2a0f8U, 0xbd411f263d8937d1U, 0xbd69c764be86ad4dU,
  0x3e397f9b00000000U, 0xbd7e1b83bdbc0a1fU, 0xbd73f1743e2ccb07U, 0x3ea15bb63d36f517U,
  0x3d5f9d55bda7b600U, 0x3b22a0f83d557345U, 0x3d1876e8be6227d9U, 0xbdfe1b83bdcb4936U,
  0x3ba2a0f83d4b4936U, 0xbdc11f26bd1876e8U, 0x3d9876e8bdaccb07U, 0x3d73f174be15ec65U,
  0x3d411f26U, 0xbdc11f26bdb1e00fU, 0x3e019846bd8937d1U, 0xbd36f5173e1876e8U,
  0xbdeedc6c3d36f517U, 0xbb22a0f83e15ec65U, 0xbd22a0f8be57fdc9U, 0xbd5f9d553cf3f174U,
  0xbd36f517bd0e4cd9U, 0x3e5f9d55bc4b4936U, 0xbd8937d1bd9d8bf0U, 0xbbf3f1743e019846U,
  0x3e90d75dbbf3f174U, 0x3d22a0f83da7b600U, 0xbe0422c9bccb4936U, 0x3e5a884dbe0937d1U,
  0x3b22a0f8bd5f9d55U, 0xbda2a0f8be5d12d1U, 0x3e6edc6c3d7e1b83U, 0x3c4b49363bf3f174U,
  0x3c73f174be6c51e8U, 0x3ba2a0f8bd9876e8U, 0xbde4b25dbe15ec65U, 0x3d411f263e252b7cU,
  0xbe36f517bdf3f174U, 0xbb22a0f8bccb4936U, 0x3d9876e83d7e1b83U, 0xbe4b4936bdd05e3eU,
  0xbde9c7643c8e4cd9U, 0xbd0e4cd93ca2a0f8U, 0xbdbc0a1fbd22a0f8U, 0xbe1361e13d411f26U,
  0x3dda884d3e6227d9U, 0xbd5f9d55bd8e4cd9U, 0x3df9067cbd7e1b83U, 0x3daccb073d5f9d55U,
  0xbe2ccb073e5f9d55U, 0xbd8e4cd9bda2a0f8U, 0xbd9361e1bda2a0f8U, 0x3ccb49363e1b016cU,
  0xbcb6f5173c4b4936U, 0xbca2a0f8bd9d8bf0U, 0x3e673ce13d2ccb07U, 0xbcdf9d55bd8937d1U,
  0xbdd573453dfe1b83U, 0xbe06ad4d3d9876e8U, 0x3c4b49363db1e00fU, 0x3e48beb23ccb4936U,
  0xbe4b49363e0e4cd9U, 0xbd0422c93de4b25dU, 0xbd8422c9be8937d1U, 0x3d73f174bd1876e8U,
  0xbcf3f174bdfe1b83U, 0x3daccb073ccb4936U, 0xbe1361e1be2f558bU, 0xbdf3f174bdeedc6cU,
  0xbd8422c93e0bc255U, 0xbe019846bd1876e8U, 0xbd9361e13c4b4936U, 0x3d1876e83e31e00fU,
  0x3ddf9d55bba2a0f8U, 0x3d411f26bc22a0f8U, 0xbdaccb073da2a0f8U, 0x3e7e1b83bd8937d1U,
  0xbcf3f174bdf3f174U, 0x3da2a0f83b22a0f8U, 0xbd557345be15ec65U, 0x3df9067cbd22a0f8U,
  0x3da7b6003dd57345U, 0xbe3c0a1f3dbc0a1fU, 0xbdf9067cU, 0x3db1e00fbcf3f174U,
  0xbd22a0f8be1b016cU, 0x3d9d8bf0bda2a0f8U, 0x3c8e4cd9bd9361e1U, 0x3d9d8bf0be0422c9U,
  0xbde9c7643c8e4cd9U, 0x3ca2a0f8be5a884dU, 0x3ccb49363e2ccb07U, 0xbd36f517be0e4cd9U,
  0x3da2a0f83cb6f517U, 0xbd69c764be22a0f8U, 0x3e31e00f3d9d8bf0U, 0x3ba2a0f8be019846U,
  0x3d411f263e0937d1U, 0x3dc6342e3e397f9bU, 0xbd0e4cd93cb6f517U, 0xbd8e4cd93e019846U,
  0xbdb6f5173dc11f26U, 0x3ccb49363daccb07U, 0xbe397f9b3d557345U, 0x3e0422c9bda7b600U,
  0xbe2f558b3e1d8bf0U, 0x3d5f9d55bd36f517U, 0xbdbc0a1f3d5f9d55U, 0x3dc6342ebe3c0a1fU,
  0x3c8e4cd93d5f9d55U, 0x3c22a0f83d557345U, 0xbd8e4cd93dbc0a1fU, 0x3e346a93bdb6f517U,
  0x3d2ccb07bd8937d1U, 0x3d22a0f8be48beb2U, 0xbd2ccb073e0937d1U, 0x3b22a0f83d22a0f8U,
  0xbca2a0f83d22a0f8U, 0xbdb1e00fbdd57345U, 0xbd2ccb07bccb4936U, 0xbd2ccb073d9876e8U,
  0xbe019846bdfe1b83U, 0xbc22a0f8be0422c9U, 0xbd8937d13dd05e3eU, 0x3e9731a73da2a0f8U,
  0x3d22a0f83d8937d1U, 0x3e2ccb073ccb4936U, 0xbe46342e3e0422c9U, 0xbd411f263d8422c9U,
  0x3d73f1743d8e4cd9U, 0xbe1b016cbd8422c9U, 0x3da7b6003d5f9d55U, 0xbe48beb2be22a0f8U,
  0x3cdf9d55bba2a0f8U, 0x3d69c7643d4b4936U, 0xbd73f174bcf3f174U, 0x3e82dd88bda7b600U,
  0x3c4b49363e201674U, 0x3e0bc255bd22a0f8U, 0xbcf3f174bda2a0f8U, 0x3d5573453da7b600U,
  0x3d5573453d557345U, 0xbdfe1b83bda7b600U, 0xbe0bc255bdd57345U, 0x3b22a0f83e019846U,
  0xbd8e4cd9bb22a0f8U, 0xbdcb49363e019846U, 0xbe06ad4dbba2a0f8U, 0xbe1d8bf03d7e1b83U,
  0x3dc6342e3cdf9d55U, 0xbe397f9bbe5d12d1U, 0x3d5f9d55bd4b4936U, 0xbd5f9d553d69c764U,
  0xbd5f9d55bc4b4936U, 0x3d2ccb07be27b600U, 0xbdcb4936bcdf9d55U, 0xbdc6342e3e2a4084U,
  0xbd8422c900000000U, 0xbcb6f5173d4b4936U, 0x3c8e4cd93ccb4936U, 0xbd7e1b83be201674U,
  0xbdf9067c3d7e1b83U, 0xbe1361e1be5a884dU, 0x3e46342e3e1361e1U, 0xbcdf9d55bdcb4936U,
  0xbe6227d9U, 0x3e411f26bcb6f517U, 0xbcdf9d55bd557345U, 0x3ca2a0f8be2f558bU,
  0x3e673ce1bd557345U, 0xbd0422c93db6f517U, 0xbd9d8bf0bc73f174U, 0x3e27b6003dfe1b83U,
  0x3dbc0a1f3df9067cU, 0xbd36f5173ca2a0f8U, 0x3c8e4cd93cf3f174U, 0xbd36f517bd36f517U,
  0xbd2ccb07bdaccb07U, 0xbba2a0f83d9d8bf0U, 0x3ba2a0f83e0422c9U, 0x3df3f1743ba2a0f8U,
  0xbd2ccb07bcdf9d55U, 0xbd4b4936bd9361e1U, 0xbd5f9d553e10d75dU, 0x3e767bf83d22a0f8U,
  0x3d2ccb07bbf3f174U, 0xbe0937d13d9361e1U, 0x3d9361e13d2ccb07U, 0x3cdf9d553e0937d1U,
  0x3e10d75dbd0422c9U, 0xbe2f558b3e64b25dU, 0x3df3f174bdc6342eU, 0xbdfe1b83be48beb2U,
  0x3dfe1b833dc11f26U, 0x3d0e4cd9bd22a0f8U, 0xbe1876e8be2ccb07U, 0x3e8053043d8e4cd9U,
  0x3d36f517bd557345U, 0xbe64b25dbe019846U, 0x3d5f9d55bdb6f517U, 0xbdeedc6cbccb4936U,
  0xbd9876e8bca2a0f8U, 0x3e87f28f3de9c764U, 0xbdd573453d8937d1U, 0x3da2a0f8bddf9d55U,
  0xbd8937d13e201674U, 0x3d22a0f8bdda884dU, 0xbe0937d1be31e00fU, 0x3e22a0f83e0422c9U,
  0x3cf3f174bd557345U, 0xbe1b016cbe2a4084U, 0x3e5a884d3c73f174U, 0x3cdf9d55bd5f9d55U,
  0xbe4b4936U, 0x3ba2a0f8bcb6f517U, 0xbda2a0f8bd7e1b83U, 0x3cf3f174bde9c764U,
  0x3cf3f174bcf3f174U, 0xbd7e1b833d411f26U, 0x3c73f174bc22a0f8U, 0x3e4b49363dd05e3eU,
  0x3e27b6003e201674U, 0xbc8e4cd93cf3f174U, 0xbdf9067c3df3f174U, 0x3d5f9d55bc8e4cd9U,
  0xbcdf9d553e10d75dU, 0xbe22a0f8be4dd3baU, 0xbddf9d55be0bc255U, 0xbbf3f174bddf9d55U,
  0x3daccb073e31e00fU, 0x3e48beb23dfe1b83U, 0xbd4b49363bf3f174U, 0x3e2f558bU,
  0x3dfe1b833d22a0f8U, 0x3d36f5173d4b4936U, 0xbe15ec65bd69c764U, 0x3d557345bdfe1b83U,
  0xbdcb49363e0422c9U, 0x3e6edc6cbd9361e1U, 0xbd2ccb073c4b4936U, 0xbd7e1b833dd05e3eU,
  0x3dd05e3ebd8937d1U, 0xbe0422c900000000U, 0x3d7e1b833dcb4936U, 0xbe48beb23d0e4cd9U,
  0xbcb6f5173ddf9d55U, 0xbdb1e00fbe7166f0U, 0x3c4b4936bb22a0f8U, 0x3d9d8bf03d4b4936U,
  0xbdd573453d7e1b83U, 0xbcdf9d55bd0422c9U, 0x3e1361e13c22a0f8U, 0x3d22a0f8bd4b4936U,
  0x3d8937d13dc11f26U, 0xbd1876e8bca2a0f8U, 0xbd0e4cd93cf3f174U, 0xbd5f9d55bc22a0f8U,
  0xbd69c764bdb1e00fU, 0xbd2ccb073e0422c9U, 0x3e9ed1323cdf9d55U, 0xbd5573453dda884dU,
  0x3dcb49363cb6f517U, 0xbe201674bdd57345U, 0xbd0422c9bd0e4cd9U, 0xbde4b25dbd36f517U,
  0x3e7b91003dc6342eU, 0x3e22a0f8bb22a0f8U, 0x3de4b25dbc4b4936U, 0xbe1876e83e346a93U,
  0xbcb6f5173e2a4084U, 0x3e019846bd2ccb07U, 0xbb22a0f8bd9876e8U, 0xbc4b4936be019846U,
  0x3d0e4cd9be1876e8U, 0x3dbc0a1f3e019846U, 0xbd4b49363d0422c9U, 0x3d73f174be43a9aaU,
  0xbccb49363dd05e3eU, 0x3c4b49363b22a0f8U, 0xbdc6342ebd1876e8U, 0xbe397f9bbbf3f174U,
  0xbd8937d1bd9361e1U, 0x3ba2a0f83e3e94a3U, 0x3e27b6003deedc6cU, 0xbc8e4cd9bca2a0f8U,
  0x3c4b4936be5d12d1U, 0x3ca2a0f83e0422c9U, 0x3e1876e83da7b600U, 0x3e0bc255bd8937d1U,
  0xbe4dd3ba3e6c51e8U, 0xbb22a0f83da7b600U, 0x3c4b4936bc4b4936U, 0xbe2ccb07bbf3f174U,
  0xbc73f174bd73f174U, 0xbe0422c93dd57345U, 0x3e7e1b833e06ad4dU, 0x3dfe1b833df3f174U,
  0x3db1e00f3d5f9d55U, 0xbe346a933d4b4936U, 0xbd2ccb073d9361e1U, 0xbcf3f1743e15ec65U,
  0x3e15ec653dfe1b83U, 0xbdbc0a1fbd5f9d55U, 0x3dc11f263db6f517U, 0xbe2f558bbd73f174U,
  0xbdd57345bb22a0f8U, 0x3e2a40843ba2a0f8U, 0xbe397f9b3d9361e1U, 0xbd411f26bd8e4cd9U,
  0xbccb4936bdf9067cU, 0xbbf3f1743d9876e8U, 0x3c4b4936bcf3f174U, 0x3c73f1743e0937d1U,
  0x3db1e00fbde4b25dU, 0xbdf3f174bdbc0a1fU, 0x3da2a0f83bf3f174U, 0xbc22a0f8be27b600U,
  0x3d0e4cd93c73f174U, 0xbdd05e3ebe673ce1U, 0x3d5f9d553d22a0f8U, 0x3d5f9d55bd9d8bf0U,
  0x3c22a0f83e0422c9U, 0x3e2016743e06ad4dU, 0xbdaccb073d22a0f8U, 0xbdd57345bd9361e1U,
  0x3e7b91003db6f517U, 0x3d8422c93db1e00fU, 0x3e397f9b3ba2a0f8U, 0xbe411f263e52e8c2U,
  0x3d9876e8bd0422c9U, 0xbd9876e83df3f174U, 0x3d4b49363e0e4cd9U, 0xbe0422c9bb22a0f8U,
  0xbd36f517bdfe1b83U, 0x3e9b016c3d8937d1U, 0xbd411f263d8422c9U, 0x3dfe1b833daccb07U,
  0xbe2ccb073e346a93U, 0xbc4b4936bdf9067cU, 0xbd1876e83ddf9d55U, 0xbdb6f517bd5f9d55U,
  0xbd0422c93ccb4936U, 0xbd0422c9bd8422c9U, 0x3e767bf8bd0422c9U, 0x3daccb07bde4b25dU,
  0x3dc11f26be22a0f8U, 0xbc73f1743d36f517U, 0xbdd57345be15ec65U, 0x3cf3f1743d2ccb07U,
  0xbda2a0f8bd9d8bf0U, 0xbcb6f5173ccb4936U, 0xbdbc0a1fbe6edc6cU, 0x3e5d12d13d69c764U,
  0xbde4b25dbd1876e8U, 0xbda2a0f83df3f174U, 0x3e9731a73dc11f26U, 0x3e1b016cbcdf9d55U,
  0xbd9876e83d9d8bf0U, 0x3ccb4936bde4b25dU, 0xbd9361e13dd57345U, 0xbbf3f1743da7b600U,
  0xbe1361e1be1d8bf0U, 0xbb22a0f8bc22a0f8U, 0xbdc11f26be46342eU, 0x3e64b25dbba2a0f8U,
  0xbdb1e00fbd557345U, 0x3d0e4cd93de4b25dU, 0xbe1361e1be1d8bf0U, 0xbd0422c9bddf9d55U,
  0x3d7e1b83be1d8bf0U, 0x3e6edc6c3d9361e1U, 0xbe1876e8bdd05e3eU, 0xbdb1e00f3e0937d1U,
  0x3e5573453ddf9d55U, 0xbd4b493600000000U, 0xbc8e4cd93bf3f174U, 0x3d7e1b83be805304U,
  0xbba2a0f83dd05e3eU, 0x3dda884d3cb6f517U, 0xbe2ccb073e7166f0U, 0xbccb49363d8937d1U,
  0x3dd57345bd5f9d55U, 0xbd4b49363dd57345U, 0x3d9876e8bd1876e8U, 0xbe1d8bf0be52e8c2U,
  0x3e43a9aa3c73f174U, 0xbd8e4cd9bdcb4936U, 0x3d8e4cd93d2ccb07U, 0xbdfe1b83be201674U,
  0x3bf3f1743e1b016cU, 0x3df3f174bca2a0f8U, 0xbd557345bd69c764U, 0x3e4dd3ba3e48beb2U,
  0x3cb6f517bd73f174U, 0x3ca2a0f83d69c764U, 0x3cdf9d55bd69c764U, 0xbcdf9d553ba2a0f8U,
  0xbe15ec65bd36f517U, 0xbe1361e1bdda884dU, 0x3dc6342e3d7e1b83U, 0xbe2a4084be6227d9U,
  0xbd36f5173b22a0f8U, 0x3e06ad4dbd2ccb07U, 0xbd9361e1be1876e8U, 0x3d36f5173d8937d1U,
  0x3d557345bc4b4936U, 0xbe2ccb073e1361e1U, 0x3db6f5173dcb4936U, 0x3d7e1b833d0422c9U,
  0xbe201674bd9d8bf0U, 0x3cdf9d553ca2a0f8U, 0x3da7b6003c73f174U, 0xbe0bc255bdaccb07U,
  0xbdcb49363d4b4936U, 0x3db6f517be57fdc9U, 0x3d36f5173d9361e1U, 0x3cb6f5173dbc0a1fU,
  0x3d9876e8bcdf9d55U, 0xbe0bc2553e6227d9U, 0xbd5573453df9067cU, 0xbe0422c9be85680bU,
  0x3dda884d3da2a0f8U, 0x3c4b4936bdfe1b83U, 0xbccb49363ccb4936U, 0xbdf3f174bd69c764U,
  0xbd8422c9bdcb4936U, 0x3ba2a0f83e22a0f8U, 0xbd557345bd411f26U, 0xbc73f1743e06ad4dU,
  0xbd1876e83b22a0f8U, 0xbe15ec65be0e4cd9U, 0xbdc6342e3db1e00fU, 0xbd9876e83d8422c9U,
  0x3e673ce1bd8937d1U, 0xbdb6f517bdeedc6cU, 0xbcf3f1743d8937d1U, 0xbe346a93bdb6f517U,
  0xbd411f26bdeedc6cU, 0x3d69c7643d1876e8U, 0xbd9d8bf0bdfe1b83U, 0xbd69c7643ddf9d55U,
  0x3e252b7cbba2a0f8U, 0xbddf9d553e019846U, 0xbdf3f174bdeedc6cU, 0x3df3f1743dc11f26U,
  0xbdb1e00fbe019846U, 0xbd5f9d55bd73f174U, 0x3cdf9d55bda2a0f8U, 0xbc73f1743df3f174U,
  0x3ca2a0f8bd22a0f8U, 0x3ccb49363d9361e1U, 0x3deedc6c3dd05e3eU, 0x3db6f5173e1d8bf0U,
  0xbdaccb073c8e4cd9U, 0xbdc6342ebd557345U, 0xbd8422c9bd9876e8U, 0xbd73f174be48beb2U,
  0xbca2a0f8bd4b4936U, 0xbd22a0f83d8937d1U, 0x3d7e1b833d2ccb07U, 0x3e0937d13d36f517U,
  0xbd8422c93cb6f517U, 0x3dc11f263db6f517U, 0x3dc6342e3de4b25dU, 0xbd4b49363d8937d1U,
  0x3d8422c93e36f517U, 0xbc22a0f8bdb1e00fU, 0xbd9d8bf0bd9361e1U, 0x3ca2a0f83e201674U,
  0x3e1d8bf0bba2a0f8U, 0xbba2a0f83d2ccb07U, 0xbd411f26bd1876e8U, 0x3cb6f517be0bc255U,
  0xbddf9d55bbf3f174U, 0xbd22a0f8bdda884dU, 0x3e8f921b3da2a0f8U, 0xbd69c764bda2a0f8U,
  0x3e019846bdd05e3eU, 0x3ddf9d55bca2a0f8U, 0x3cdf9d553db6f517U, 0xbd7e1b83bba2a0f8U,
  0xbd2ccb073d9d8bf0U, 0x3ba2a0f8bdf3f174U, 0x3c22a0f8be505e3eU, 0x3d8e4cd93e0422c9U,
  0xbdd57345bccb4936U, 0xbdbc0a1f3de9c764U, 0xbe019846be1361e1U, 0x3da2a0f800000000U,
  0x3c8e4cd93e0e4cd9U, 0xbe4b49363d0e4cd9U, 0xbe1d8bf03d411f26U, 0xbbf3f1743d8422c9U,
  0xbd9d8bf0bd69c764U, 0xbd22a0f8bdda884dU, 0x3c4b49363d22a0f8U, 0xbcb6f5173e0422c9U,
  0xbdc6342ebd1876e8U, 0xbde4b25d3e397f9bU, 0x3c22a0f83daccb07U, 0x3d411f26bdb6f517U,
  0x3b22a0f83d557345U, 0x3e3c0a1f3d73f174U, 0xbca2a0f8bdf9067cU, 0x3ba2a0f83dd57345U,
  0xbe0bc255be0422c9U, 0xbde9c7643cf3f174U, 0x3d8937d13e2ccb07U, 0x3e346a933dda884dU,
  0x3c22a0f8bbf3f174U, 0x3c73f1743e019846U, 0xbda2a0f8be3c0a1fU, 0xbd411f26bcdf9d55U,
  0x3dd05e3ebd0e4cd9U, 0xbde4b25d3dd05e3eU, 0xbb22a0f8bccb4936U, 0x3db6f5173e4dd3baU,
  0xbc73f1743d0e4cd9U, 0x3cdf9d55bd4b4936U, 0x3de9c7643e397f9bU, 0x3e5f9d553d8422c9U,
  0x3d22a0f8be1361e1U, 0x3d4b4936bc8e4cd9U, 0xbd5f9d55bddf9d55U, 0x3cdf9d553d2ccb07U,
  0xbd9d8bf0bd7e1b83U, 0x3e64b25d3deedc6cU, 0x3cdf9d55bd9876e8U, 0x3d36f5173e57fdc9U,
  0x3d9d8bf03c73f174U, 0x3d73f1743d1876e8U, 0x3deedc6c3da7b600U, 0xbe3c0a1fbda7b600U,
  0xbd8e4cd9bd22a0f8U, 0x3d1876e8be4dd3baU, 0x3da7b600bd5f9d55U, 0xbe22a0f8bdc11f26U,
  0x3dd573453ccb4936U, 0xbe0937d1be673ce1U, 0xbd9876e83d411f26U, 0xbe0e4cd93dc6342eU,
  0x3d69c7643d4b4936U, 0x3c22a0f83d0422c9U, 0x3d411f26bdc11f26U, 0x3dd05e3ebd557345U,
  0x3da2a0f83bf3f174U, 0x3cf3f1743db1e00fU, 0xbe252b7c3cb6f517U, 0xbde4b25dbde9c764U,
  0x3de4b25d3cdf9d55U, 0xbcf3f174be48beb2U, 0x3c4b49363d411f26U, 0x3d0e4cd93e06ad4dU,
  0x3e36f5173db1e00fU, 0xbc22a0f83c4b4936U, 0xbdd05e3ebdc6342eU, 0x3dd05e3e3c8e4cd9U,
  0xbccb4936bd8937d1U, 0x3e1361e13d411f26U, 0xbde9c764be1b016cU, 0x3da2a0f8bdeedc6cU,
  0xbd557345bc22a0f8U, 0x3d73f1743ba2a0f8U, 0xbd7e1b83bda7b600U, 0xbe1876e83e3e94a3U,
  0xbe5a884d3dc6342eU, 0x3e346a93bd0e4cd9U, 0x3daccb07bda2a0f8U, 0x3c4b4936bd557345U,
  0xbdeedc6c3da7b600U, 0x3db1e00f3d36f517U, 0xbdf9067cbdb6f517U, 0xbca2a0f8bd22a0f8U,
  0xbccb4936be019846U, 0x3e69c7643d411f26U, 0xbdb6f517bd0e4cd9U, 0x3df9067c3d9876e8U,
  0xbd4b4936be252b7cU, 0xbdd57345bdaccb07U, 0xbba2a0f8bdda884dU, 0x3de4b25d3e252b7cU,
  0xbdbc0a1fbe019846U, 0x3dcb4936be019846U, 0x3b22a0f83e201674U, 0xbd7e1b83bdf9067cU,
  0x3b22a0f83df3f174U, 0xbd9876e8bdd05e3eU, 0x3e0937d1bd36f517U, 0x3d4b49363d36f517U,
  0xbde4b25dbc4b4936U, 0x3e1d8bf03e1d8bf0U, 0x3c73f174bd2ccb07U, 0xbde4b25dbe36f517U,
  0x3d8937d13e1b016cU, 0xbdaccb073c8e4cd9U, 0xbca2a0f8bdfe1b83U, 0xbd1876e83d1876e8U,
  0x3ccb49363d9876e8U, 0x3dcb49363e0937d1U, 0xbdf3f174bd4b4936U, 0x3d1876e83d9876e8U,
  0xbd9361e1be27b600U, 0x3e1d8bf03d1876e8U, 0x3deedc6cbd9d8bf0U, 0xbd9361e1bcdf9d55U,
  0xbd1876e83d9876e8U, 0x3d4b49363deedc6cU, 0x3e0bc2553df3f174U, 0x3cf3f174bd8422c9U,
  0xbc73f174bd411f26U, 0xbdda884dbdbc0a1fU, 0xbd557345bdf9067cU, 0x3cf3f174be557345U,
  0x3db6f5173e252b7cU, 0xbdbc0a1f3d9d8bf0U, 0x3ccb49363e2ccb07U, 0xbbf3f1743d4b4936U,
  0xbba2a0f8bdeedc6cU, 0xbccb4936bd7e1b83U, 0x3e673ce13d8e4cd9U, 0xbdf3f1743d73f174U,
  0xbc73f174bca2a0f8U, 0xbdb1e00fbdc11f26U, 0xbd73f174bd9876e8U, 0xbd9876e83d36f517U,
  0x3e5573453dc11f26U, 0xbd411f263cb6f517U, 0x3d22a0f83d36f517U, 0x3e397f9b3dda884dU,
  0xbca2a0f83d8937d1U, 0x3d5f9d553b22a0f8U, 0xbda7b6003e673ce1U, 0x3d411f263e0937d1U,
  0x3de4b25dbbf3f174U, 0x3bf3f174bdb1e00fU, 0xbe20167400000000U, 0xbd5f9d55bc22a0f8U,
  0x3e8937d13dbc0a1fU, 0x3d8e4cd93d0422c9U, 0xbdc6342ebe85680bU, 0x3d73f1743d2ccb07U,
  0x3d8937d1bd8e4cd9U, 0x3d8422c93db1e00fU, 0xbc22a0f8be7e1b83U, 0xbbf3f1743d5f9d55U,
  0x3d7e1b833d8e4cd9U, 0xbdf3f174bcb6f517U, 0x3db1e00fbdbc0a1fU, 0xbd5f9d55bb22a0f8U,
  0x3cb6f517bdd05e3eU, 0x3cf3f174bd9876e8U, 0xbd73f174be0bc255U, 0xbd4b4936bcb6f517U,
  0xbd9d8bf03d411f26U, 0x3ba2a0f8be673ce1U, 0x3d1876e83dfe1b83U, 0xbdeedc6c3c73f174U,
  0x3cf3f174be1361e1U, 0xbd0e4cd93e15ec65U, 0x3c73f174bc22a0f8U, 0xbd69c764bba2a0f8U,
  0x3e252b7c3c8e4cd9U, 0xbccb4936bd4b4936U, 0xbd2ccb073d9d8bf0U, 0xbdf3f174bd411f26U,
  0xbe15ec65bde4b25dU, 0x3dd05e3e3e0937d1U, 0xbe0937d13db1e00fU, 0xbd4b49363daccb07U,
  0xbd0e4cd9be73f174U, 0x3e46342ebc4b4936U, 0x3cb6f517be0e4cd9U, 0x3d411f26be27b600U,
  0xbd36f5173e1876e8U, 0x3e019846bd8937d1U, 0x3d8422c9be019846U, 0x3d36f5173e0422c9U,
  0xbe2a40843cb6f517U, 0x3c4b49363d8422c9U, 0xbdbc0a1fbe1d8bf0U, 0x3d8422c93d8422c9U,
  0x3daccb07bd0422c9U, 0xbdf3f1743e31e00fU, 0x3deedc6cbccb4936U, 0x3d36f517bc8e4cd9U,
  0xbdda884d3e557345U, 0xbd1876e8bdb6f517U, 0xbd8e4cd9be201674U, 0x3deedc6c3da2a0f8U,
  0x3d46faf1bd9753b2U, 0xbbd4f96abd8577a9U, 0x3db1d8fcbd0f3895U, 0x3c896370bbde06c6U,
  0x3d973f283d9bb29aU, 0x3d9708453e00c446U, 0x3d87c2a5bd1e43feU, 0x3d17d61e3d63960aU,
  0x3dac77913b3e0fe2U, 0xbd2b45ea3c7d6722U, 0x3d3349513dbc710eU, 0xbd99adbc3af71957U,
  0xbde5e0a63d45c20fU, 0x3d87a0423c01afdbU, 0x3d42fbae3d828339U, 0x3df1c737bd86b37cU,
  0x3d64a14fbd7c8fdcU, 0x3d421fc2bdd8bed5U, 0x3d955caabdb812b1U, 0xbd70f58f3da079c4U,
  0x3dacebddbe207aaeU, 0x3de5ad063dc7fadfU, 0x3d45439b3dcdac6fU, 0x3d8fb32f3d920978U,
  0xbe1dd737bd317087U, 0x3d7995e4bdaf2f1bU, 0xbd01902c3da9dca4U, 0x3e0562efbd27c8fcU,
  0x3cba1740bdecbf0eU, 0x3d462e213df19f84U, 0x3dd5bfa03d30c8fbU, 0xbcb4b4cb3d9c8a09U,
  0x3d022bd1bd650744U, 0xbdb54053bddcfd45U, 0x3d1103153dd331d9U, 0x3c03c9243d8496d7U,
  0x3cf758953d546336U, 0x3c76b8e73dc9d646U, 0x3da7d8ca3d187376U, 0x3de857b13d2cb0b1U,
  0xbd238d1f3da0b2c7U, 0x3cf01b6d3e05799bU, 0xbd5cd55d3e22682fU, 0x3e0521303d76ed64U,
  0x3d1fc7a5bdf037e2U, 0xbc07c43d3dd75e94U, 0xbcbd378c3dac2986U, 0x3d6394fb3d8c6a10U,
  0xbdc072023d5e8164U, 0x3db6b07a3defb6d7U, 0x3de9d0d13d1dc9d1U, 0xbdce7bcb3df2df7eU,
  0x3dcd90d03d19c7e3U, 0x3d4c234abdaa1ff3U, 0xbc22b0bfbd9537c7U, 0x3dcb50023cce4a64U,
  0x3db6affebd447e47U, 0xbd09edf73cca8989U, 0xbd9241db3b4860daU, 0x3d497d03bc054e36U,
  0x3d8cb69abda49ac2U, 0x3d8140a63e043c7fU, 0x3d68813b3c8dfbd7U, 0x3d97e3afbdc49221U,
  0xbdaf4d823d97c566U, 0x3d826dc9bc19f49eU, 0xbdef284e3d813d7fU, 0xbd506e253d567a17U,
  0x3d176a2f3cc0921dU, 0x3d5ecc373dc1af4bU, 0x3de62a5cbccb04eaU, 0x3e0841df3da27f68U,
  0x3bda6b923d082666U, 0x3d99fc3a3de8600bU, 0x3d3560323d5dbd6aU, 0x3dc415d63d657dfeU,
  0x3cb1209dbce7c5a2U, 0x3da8192d3d5fdbc1U, 0xbdc8743e3dd2c05dU, 0xbc01e8373db0a0b8U,
  0xbcb6e4cebe3e42e6U, 0xbdb6a6dc3d583b5dU, 0x3d280d4fbc534f2aU, 0x3dd2142cbcad2870U,
  0xbd2a659e3cf7cc4fU, 0x3daa0173bcda0d92U, 0x3be8cba13d0bb860U, 0xbe66ed113d04c27eU,
  0x3d5f18b23d860969U, 0xbd1210963d8f0c14U, 0xbd598f323a96e03bU, 0x3df737313d8e3872U,
  0x3d1c4b603d7ee866U, 0x3d067b263d810cf0U, 0x3d1248a03e1529d5U, 0xbd28403c3d8bf740U,
  0x3dd5e1163d8b9cc2U, 0xba5909f33d9b6cb0U, 0x3ddc02d63d5142eaU, 0xbd9cef863d5c01f0U,
  0x3d7f723b3d990402U, 0xbd659dbbbe1f3da2U, 0xbdae50443c7133e4U, 0xbc24c6aa3d526f8cU,
  0x3d2706363d62aeb2U, 0x3d893a1f3cd5021cU, 0x3dc6f8733d7a5f2fU, 0x3d55b02f3c7a1aa5U,
  0x3ddbbc5a3bacfe08U, 0x3d48a6013beb0100U, 0xbd7192f13d3dd2feU, 0x3ce6016a3d2dd1c3U,
  0xbc61de243d0547efU, 0x3e15acaa3d6f56aaU, 0xbd528d86bd3bf807U, 0x3d89d5913b982397U,
  0x3d30cf42bcc3ed5aU, 0x3dee3881bb0ae06fU, 0x3d2b90913ba47facU, 0x3d253a2dbe524f86U,
  0xbd5ff5273d981063U, 0x3d83be21bd50dd26U, 0x3dce3b6cbd64038eU, 0xbd967ff73dd972a2U,
  0x3c067d633de5a6fbU, 0x3c1c79b5bc84fa91U, 0x3df7e571bdd77592U, 0x3d36e4f5be21b813U,
  0x3dd6bab23d9ab8abU, 0x3cff94e73db21c82U, 0x3e0a47923b880461U, 0x3dd0b3b53d4cce14U,
  0x3d7e7de13dbf53d8U, 0x3daab6b13cfaf4d6U, 0x3c9d1ca43de7162bU, 0x3d2d0a233daed664U,
  0xbd6cdaaabdd6c10aU, 0x3d6a8d76bd6c0f74U, 0x3ddb0e59bd66b272U, 0x3d5b009c3db34cdbU,
  0x3d5cc1a23daff3cbU, 0x3dc14a613da214a3U, 0x3d67023f3d5bbcf1U, 0xbbe5d6a73cbbd611U,
  0xbe13a6943d971b6bU, 0x3d565fbc3d7010f3U, 0x3df184753e09e74eU, 0x3c1b16be3ceca535U,
  0xbdb551233d6efe1dU, 0x3d81fc363d9b3eceU, 0xbd0efd1b3bef8f9fU, 0x3daed01d3de072f6U,
  0xbd2bc2ad3d8f0c8eU, 0x3dbf12193df21012U, 0xbcd70fbe3d485db4U, 0x3d9ef20abd3d417dU,
  0x3d6d076dbd86e291U, 0x3decc4ba3c34127eU, 0x3d8ad4ea3d58ed49U, 0x3d43be343d88d7b1U,
  0x3e083a923d91b19fU, 0x3cd12624be0b24e6U, 0xbb8a93b63ba2fb2dU, 0xbd780a4fbc04f7e7U,
  0x3d25ac1c3d85ba46U, 0x3dc226f8bd7b1d6bU, 0x3e0c9bfd3d706b72U, 0xbdddcab63d7e86b7U,
  0x3df19f2abd2ea76dU, 0x3db187ee3e11af70U, 0xbe37f7543d80bc02U, 0x3cf5a8083d362e5bU,
  0x3e29bff6be01d37cU, 0x3e1d1c983d8b1a51U, 0x3db08776bd843114U, 0xbd955619bd7028c3U,
  0x3d6fcd8e3de675beU, 0x3d2306593deb1ad0U, 0xbdbe797e3dce843cU, 0xbc4d49df3d60d139U,
  0x3d2efb523d97899cU, 0x3e22a8cb3dad5671U, 0x3dd1e9073dcd9912U, 0x3df927f83dd6a4b2U,
  0x3d8c6f5a3e1aca8fU, 0x3c00f0203ddf884dU, 0x3ddeed313d70b0bfU, 0x3c89fe483d8cf3e2U,
  0x3dd5cbbe3d39f151U, 0x3dc0915e3d57580dU, 0xbab4c6bcbbb4c6caU, 0xbd3aa0003d2dedb4U,
  0x3ddb819d3d645866U, 0xbdaf3eecbd27e646U, 0x3d4fd0ea3d743479U, 0x3dc7dfd33d8d83d6U,
  0x3c814797bd85b856U, 0xbdf2a1d93d8b167bU, 0x3cb9f5c33ded0969U, 0x3ca00d53bce57ab5U,
  0xbdebb59bbd471e98U, 0x3e1e8679be207b59U, 0x3e8cd1083d0cd2d3U, 0x3e16f265bdf1ed4eU,
  0xbe1201663e5bb510U, 0xbe61eef4be67d799U, 0x3e03e6e8bebbbfe8U, 0xbe15be4f3e49586aU,
  0x3e0f06183e0dcd9cU, 0xbe75c0b73e0c03b2U, 0xbea43303bd6af90cU, 0xbdb9f8f03dd56cd6U,
  0xbe0bc75dbe85577bU, 0x3e3c6ff43e806bd3U, 0xbd7e185c3e829f27U, 0xbe14d5713db88c37U,
  0xbe217da73dc7f3a2U, 0xbd8c889cbe7de4e7U, 0xbeca48d93e40bd8bU, 0x3e692befbec6cd5bU,
  0x3e59cf38be3b1832U, 0xbe42c9c93dc89058U, 0xbe748df5be5cd4f0U, 0xbe9c40f23e57d5cbU,
  0x3e30d8f7be909a44U, 0xbdf1ed8bbdf8b213U, 0x3e52865abe3bcd33U, 0x3df71ee13ddf03d6U,
  0xbe70c701be03b2cbU, 0x3df881173e1c5b83U, 0x3e417bd13e861d2aU, 0x3cec578e3e0c4decU,
  0xbd5e7af1be1391b3U, 0x3d954dcfbe45a857U, 0xbdaf6ffd3e5c8147U, 0x3e4213b0bd9eb26dU,
  0x3d911586be08ee31U, 0xbe2e9992beb36c66U, 0xbddcd20d3de0428cU, 0xbe6f16e03e270510U,
  0xbd81d40cbe8c421bU, 0xbe52f8df3e05e0f1U, 0xbe6c98aa3de01b28U, 0x3e28a3e23dfe1fbfU,
  0x3d717d703e3ccd2fU, 0xbe662a213e3a72b0U, 0xbea62b3a3dd87dd3U, 0xbd8af7773e2cc971U,
  0xbdf6a6593e0d4091U, 0x3e34cf803e1defafU, 0x3de014ddbdaafb22U, 0xbe466266be47ff94U,
  0x3d719cd23e2c9663U, 0xbeec6cc93d2223d4U, 0x3e504157be3463c4U, 0xbe81c7223e7bd4c9U,
  0x3decb27d3e4bc49dU, 0xbe4701c8bebe4aefU, 0x3e302a203de8f4f4U, 0xbec7e005be773310U,
  0x3e63efcabe86531dU, 0xbe6bcc4d3ddee71eU, 0xbcd252f2beb64e85U, 0x3e311b823e57645eU,
  0x3da259dcbe7d044cU, 0xbe436e12beb7bb83U, 0xbe91ab9fbe9d4bf4U, 0x3e412324be8e6663U,
  0xbdc678ddbe6b6411U, 0x3e38e6e63e141d3cU, 0x3e52f7353dcf775dU, 0xbe19709e3e782f67U,
  0xbe16e3973d0a551dU, 0x3e3a47dabe06daacU, 0xbe1a00e9be939f62U, 0x3e67feae3dd3b08eU,
  0x3e2a6d8ebe9ec7edU, 0x3deccd0c3dcca3d1U, 0x3e6f14eabe583ad8U, 0xbe0cf5493e1fa60eU,
  0x3d5548353e20fb36U, 0xbda1d063be88b47eU, 0xbec2cb143e296450U, 0xbe6a27773d4aa62bU,
  0xbe159fc4be8096d9U, 0xbe7b882abee2f12dU, 0x3e172e5a3e27f70eU, 0x3e28c8acbe20dd06U,
  0xbdd37f033e3e9ad4U, 0xbd99e7b2be83c571U, 0xbe0efb6ebea4c115U, 0x3e30d0083e4b0d76U,
  0xbe33bc2e3d1ed350U, 0xbcc8b5023e4a4149U, 0x3e3c5171be17ede7U, 0xbeae0dd93e898e50U,
  0x3e01618a3dff10c6U, 0xbe26a08cbde5b3ebU, 0x3e883b4f3e240d41U, 0x3db2a4593d9ba286U,
  0x3dcfd3b5be43d1b5U, 0x3e3518b23e9256b6U, 0xbe63026a3dff1fe8U, 0xbd5ca3a3be136406U,
  0x3df2b406bdab9cafU, 0xbe733ab33d3bf22dU, 0x3e53f8db3e58497aU, 0xbd96f313be5a03a9U,
  0x3e8522be3e3ca622U, 0x3d8cc2c53e16dabaU, 0x3db7771abe287874U, 0x3da5db463e3604a3U,
  0xbe5ac68cbebb16e6U, 0xbe489f85be8a3253U, 0xbd8b33a63d20d634U, 0xbe0abed63e1022caU,
  0x3e28ee72bdbca01cU, 0xbe5a94a9be57bbf3U, 0xbe983640be2a27c6U, 0xbe66fab03e7cc9f6U,
  0xbdd80423bec33303U, 0xbdd965debd2539beU, 0x3e0af68b3e340183U, 0x3e14c959be5c247dU,
  0xbe6cfec23e373a19U, 0x3e2e0b82be2059e8U, 0x3e06f8c1be576324U, 0x3ca54b7c3e8e3a2dU,
  0x3e531cc5be7e43f0U, 0x3dedff65be2ada2cU, 0xbe24185f3e30f723U, 0x3e063d28bdf4d1abU,
  0xbe303083be124adeU, 0x3ded4e473e73611cU, 0x3e034083be11766bU, 0x3e42272abe16bce6U,
  0xbd4b6a0e3e2cbe90U, 0x3d75ebb0bde84912U, 0xbe0259d4be9d2e57U, 0x3e39aa6fbe701c14U,
  0xbeb8d197bd9ef5b4U, 0x3e5bd53e3e085f7aU, 0xbe12140fbe41c7e0U, 0xbedbc5e93da38eaaU,
  0xbe6c68a0be70f435U, 0xbed4c6b23e838cafU, 0xbe6c198c3e619805U, 0x3ddf4db8be975c92U,
  0x3d9292b73e050bedU, 0x3e591657bec10f19U, 0x3e12ec2c3d8a2623U, 0x3e88bcb03dcd0bd0U,
  0x3e0a45dc3dd0c71cU, 0x3dcf57ca3e5a6e8fU, 0x3e3ec09ebe0f9d2cU, 0x3e02ef4fbea9084bU,
  0x3e11c924bdfde184U, 0x3dc73097bdb7b6e2U, 0x3dcb1d953e56194cU, 0xbd3e13023e412373U,
  0x3e01e5f3bd98b039U, 0xbd17ed7abde02287U, 0xbdf8edacbd79bfc9U, 0x3d90cedabe4ff83dU,
  0xbdc78c46be9888cdU, 0xbdfef1ab3e844eb0U, 0x3e4bcb143d885ca8U, 0x3e23a7e83e2f6383U,
  0xbe31ed0bbec24ba7U, 0xbe20154f3e374bfbU, 0x3e6a79e23e257027U, 0xbe417e01bd939c9eU,
  0xbe45ea51be3a1cccU, 0x3e277685be3b9459U, 0x3e1f12a5be08424aU, 0xbe5d9a0dbe1648d5U,
  0x3e02de853e879306U, 0xbe41a9c0be1d4093U, 0x3d8091753e408366U, 0x3ddf16323e83cb40U,
  0xbec845dc3e57734bU, 0xbe6a1b853e888d69U, 0x3e4849d0be2f6ca9U, 0x3e1b97bf3e714df5U,
  0xbd508ba33e1a83dbU, 0x3db17ddd3e7348e2U, 0x3dd15770bd993442U, 0xbdfc5a41be4e6f0bU,
  0x3e057a9fbea94e93U, 0xbda854e4be61af7fU, 0x3dc64eba3e1d1bafU, 0xbea18388be91d482U,
  0x3e38a3db3e6be187U, 0xbd925b9a3d33ceddU, 0xbe1b15a6be7008e5U, 0x3e195365bda23edaU,
  0xbedcdb093e09a246U, 0x3e7d8cd5be172aa4U, 0x3e0cc6823e631c68U, 0xbe258b373e796ba5U,
  0xb9d919c3U,
};


ai_handle g_test3_weights_table[1 + 2] = {
  AI_HANDLE_PTR(AI_MAGIC_MARKER),
  AI_HANDLE_PTR(s_test3_weights_array_u64),
  AI_HANDLE_PTR(AI_MAGIC_MARKER),
};

