/**
  ******************************************************************************
  * @file    test1_data_params.c
  * @author  AST Embedded Analytics Research Platform
  * @date    Wed May 10 05:17:10 2023
  * @brief   AI Tool Automatic Code Generator for Embedded NN computing
  ******************************************************************************
  * Copyright (c) 2023 STMicroelectronics.
  * All rights reserved.
  *
  * This software is licensed under terms that can be found in the LICENSE file
  * in the root directory of this software component.
  * If no LICENSE file comes with this software, it is provided AS-IS.
  ******************************************************************************
  */

#include "test1_data_params.h"


/**  Activations Section  ****************************************************/
ai_handle g_test1_activations_table[1 + 2] = {
  AI_HANDLE_PTR(AI_MAGIC_MARKER),
  AI_HANDLE_PTR(NULL),
  AI_HANDLE_PTR(AI_MAGIC_MARKER),
};




/**  Weights Section  ********************************************************/
AI_ALIGNED(32)
const ai_u64 s_test1_weights_array_u64[20007] = {
  0x3cafcb11bce46fe1U, 0xbcf67ce83d3d9e65U, 0x3d1f01e0bdb6027bU, 0xbd9130913d100b30U,
  0xbc8c68db3da23569U, 0x3dd83e28be0f4293U, 0x3df945dc3dc5a709U, 0x3db86116bdb01d54U,
  0xbd33cc7ebd745018U, 0xbdf0904abdf10605U, 0xbd7d9e0b3cc20cc8U, 0x3cc403e1bd401691U,
  0xbdddd0debd1230deU, 0x3dbaa880bcc76c78U, 0x3e2cdf6d3c0df766U, 0x3de233bb3c7b53f0U,
  0x3b6c7c3fbdf3cd2cU, 0x3dc79216bde15d71U, 0x3d163f8d3da2b9c2U, 0xbe07d0533c843933U,
  0x3e26db1e3d296a3aU, 0xbe013c03bd8a8c8eU, 0xbdd6aa273da713daU, 0xbb82928abca05ec6U,
  0xbd06d0e7be01dcf5U, 0x3e04be063cd680c8U, 0x3df71f283de2b030U, 0x3cca0f6a3c5b0fb1U,
  0x3d04c4d4bcaada5aU, 0xbe00144b3cf2b5ffU, 0x3dce46523ddb5fe8U, 0x3d25ddb63d272baeU,
  0xbe08d068bdd245acU, 0xbcaf9731bc81701dU, 0xbdecc913be1dce85U, 0x3e0f198dbdccefb5U,
  0xbd41a59abc9d4453U, 0xbcf611cd3c5f98f5U, 0xbd126c33bd76a84cU, 0x3d9356a7be0b3166U,
  0x3d79d4e03dafd6dcU, 0x3dcf8154bda87d15U, 0x3cbf28b43daf33eeU, 0xbdb1d71c3e010a1fU,
  0xbd8107babcf7f1c6U, 0xbdc2205b3ad88887U, 0xbd9b9ded3da1d91bU, 0xbce99690bd87a09cU,
  0xbd5116533d7c2ad5U, 0x3dd5f1f83de85e79U, 0xbcc1dd333d727236U, 0xbdaaedd73d4c9e20U,
  0x3aa79f32bbf6a32bU, 0x3d4b5c86bc485c0dU, 0xbcbc16e1bc404136U, 0x3e465085bd6e463aU,
  0x3d98dc96bde1deb9U, 0x3ddbf75e3d268a70U, 0x3dede6b0bd53dc2aU, 0xbd247959bdc109f8U,
  0x3daf6b44bc0fab25U, 0xbde9e53fbdc1a4ddU, 0xbc3a235c3d8219beU, 0xbdeb0ac6baec6c7bU,
  0x3dc62c9a3dc0bac8U, 0xbc326a243db1bedaU, 0x3dd9c9b83d0a792cU, 0x3d8401ec3d963e72U,
  0x3e028bc33dc1cf84U, 0xbd4bf2023d2ded3fU, 0x3d1f2d653dcb7867U, 0x3b91b74f3da8fd87U,
  0xbd4269b43da7348cU, 0xbd65a8d1bdc82bd4U, 0x3d6563a73cbf837bU, 0x3d9315cd3b2a20d0U,
  0xbe2397db3d06ce2cU, 0x3db908aa3dfc7cb2U, 0xbd788a9ebd6ea7fcU, 0x3d545be33dc899ebU,
  0xbd8eaf903daf8d5cU, 0xbd44cbb7bd6ef0b7U, 0x3d6379b93d01d4b2U, 0x3d3e86513ce33fbcU,
  0x3d9398b13d840244U, 0x3d506065be093c12U, 0x3d70977fbdc9d8f6U, 0xbd57afd33ca06b3cU,
  0xbdbaecc63dfdbb5eU, 0xbd59e5973deae727U, 0x3e0fc342bdba1f19U, 0x3d3d6333bdda651bU,
  0xbe00cb0b3df981acU, 0x3e07c8103dcffd78U, 0xbddcb9fabdd8dbf2U, 0x3d65ad713be53723U,
  0xbda2e633bcaa63f2U, 0x3d8091543d898dbbU, 0xbd0bf4463a81222dU, 0xbe049974be14246dU,
  0xbd84dfa13e56a4baU, 0x3cde92553dd5f005U, 0xbe24455cbd280accU, 0x3c9878153e132e5dU,
  0x3d455738bd15de07U, 0x3c55628c3d8b6e1fU, 0x3e0b292fbd52907dU, 0x3d9232cdbe0150b3U,
  0x3d885573bd8aba0fU, 0xbdbde9f93d00e76bU, 0x3db285483d23bbbeU, 0xbde004ac3cd6afcfU,
  0x3ab7da7f3dc81f53U, 0x3be643cbbdda0ddaU, 0x3d2850e8bd4a6b58U, 0xbc87aca33d66f9aeU,
  0xbdc6fc763bfe5f30U, 0xbc64fbab3d7121afU, 0x3d3404b73d36cd72U, 0xbde52e02bdfe8deaU,
  0xbd7c26a6bc83399cU, 0xbde824993d8c6beeU, 0x3e4083b63dd55af1U, 0xbd96b3573d4d83e7U,
  0x3d92e1cfbcb2a26fU, 0x3cc661d9bdd2e780U, 0xbd5fb1d73d0eb2eeU, 0x3d25269fbb865caaU,
  0xbdb272d0bdab411bU, 0xbb1d8233bdcfebc8U, 0x3d2121d73e00cf81U, 0xbe018cb83dbca9a8U,
  0x3de1612cbd8c6bdaU, 0xbe04d5073def65b5U, 0x3e167ecabdbe880fU, 0xbd5968663dbd5504U,
  0x3db6b94dbd3a0881U, 0xbde6a759bdcfcd6bU, 0xbe06220bbd9a6e3fU, 0xbdd414d93cadd74aU,
  0x3e532074bd1a7305U, 0x3da9577b3d4b21bbU, 0xbd397212bdc2a49eU, 0x3d8a871bbdc1761aU,
  0xbdcab9c23daff008U, 0x3d8cb8f43dfe3fccU, 0xbe02af75bcb04e10U, 0x3dfd5f94bd943f15U,
  0xbdb08b4e3dd75816U, 0xbdb26b86bde59e0dU, 0x3e0c32f33da0eca7U, 0x3c49bbeb3dc627d0U,
  0xbdd2faa33df0d420U, 0xbcd490263d883805U, 0xbcdea0253db5e2ecU, 0x3df14b34bd8e60d5U,
  0x3b2695fd3d220906U, 0xbccd08fd3de1245eU, 0xbe2a7371bd2ef899U, 0xbd1574073c1d65d5U,
  0xbcc326773d20bda5U, 0xbe03fcf1bbf3bd42U, 0x3d1e83aebddebaa6U, 0x3d2fed263b858883U,
  0x3db4d2d5bca1c34cU, 0xbcc2285cbdc31658U, 0x3dec1c3ebb6a08fcU, 0x3dbae4c23df8e616U,
  0xbdecb44e3d7a1516U, 0x3dffac29bd001f3eU, 0x3da316c3be0837c7U, 0xbdceb229be0d4df8U,
  0x3dcf149a3d8cf466U, 0x3d23ed08bdc1ca93U, 0xbd3b4e1fbd8b5906U, 0x3d6c18183dd86d3fU,
  0xbdf21327bdaba08eU, 0x3d5d2c9fbe1eac9aU, 0xbd9635c93d52ab73U, 0x394e8fccbd930cd8U,
  0xbdfe4d873c2d1d21U, 0x3d461d303e0cd32cU, 0xbd79ba8b3dc3cb73U, 0x3dbe3258bdc192c4U,
  0x3d22bd87be194451U, 0x3e09c5a7bdffbc98U, 0x3d2606593c9abdd2U, 0x3cb19ca43c148b0eU,
  0xbdaf16763dcd5442U, 0x3dcf4a2b3d24c4a8U, 0xbdd324233d050132U, 0xbdefbde23e1b17e0U,
  0xbd973accbdf6afccU, 0xbd8c90cd3c632010U, 0x3e1b3414bd9aabe9U, 0xbdffc268bb22d424U,
  0x3de03e7e3d8934a2U, 0x3e21d9b33d1ad8d2U, 0xbd89efb2389deeb8U, 0x3cca5f40bddaae77U,
  0xbda208b83d59283fU, 0x3cc39a5dbd4ecc54U, 0x3d950ff53cd4febfU, 0x3dbaab75be02ea89U,
  0x3dfdb8783d528ae5U, 0x3d7d5b73bdd84fc3U, 0x3bf33da83c353c07U, 0xbc8424b0bccd4a9bU,
  0xbdd5bb073dcebc71U, 0xbe24cd983dba2c3eU, 0xbd010d813d89a05dU, 0x3df6505bbd11e36cU,
  0x3cf6b616bdfea20dU, 0xbd94c9febd0fca07U, 0xbd9aacadbdb5edb5U, 0x3e29c5e33da50bc0U,
  0xbe0967ba3cb0e88dU, 0xbd3be3e1bd197a9bU, 0x3e29895c3d7f7cdcU, 0x3d853877bd4626e2U,
  0x3cabfc073d6c166fU, 0xbd9d8865bd9368bcU, 0x3c3bafe8bcc643deU, 0x3dc220fa3bd6c1cdU,
  0xbde55d41bdaa3b6bU, 0x3d88e551bd945440U, 0x3dd34b41bda95f0cU, 0x3dfbba6cbdbd9667U,
  0x3de844653cd204f7U, 0xbddc846339145f48U, 0x3ddf1d4cbd494374U, 0x3de903f73c3178cfU,
  0x3dec8e25be05c723U, 0xbd2016e83cdfe1f8U, 0xbcb3f6ea3d993da9U, 0xbd8065da3c866566U,
  0x3e1a178c3e0975a7U, 0x3dc65c9b3c478a98U, 0x3e246b3abd88b914U, 0x3daf30babe0dab11U,
  0xbdfa1c4cbd350363U, 0x3d5a60f13def2d41U, 0xbcc40d09bdfef445U, 0xbd43528dbda11cc5U,
  0x3dce5ec9bdeb1402U, 0x3e24e8e03b87e4a5U, 0x3da15e5cbc166a5eU, 0xbddf61b9be23d059U,
  0x3cc7ddb93dd83abcU, 0x3d3e25bcbe0c1cdbU, 0x3d50561f3dea7fe0U, 0x3de9768abda19631U,
  0xbd893450bd631d24U, 0x3ddd2acf3c5c21d2U, 0x3d649ba8be200372U, 0x3d5a06dcbc6f9948U,
  0xbdfa780abdbab6dbU, 0xba1bf9ddbdd131b4U, 0x3c45482fbd867ca9U, 0x3e1a350cbd96c3ddU,
  0x3deb8b3bbdc5c363U, 0xbd59b074bd275697U, 0xbdc76d8dbe03a9c9U, 0x3e1b219b3dbadb26U,
  0x3d4a71ffbd06da23U, 0xbd9c1107bdb22b06U, 0x3c2a54f93e05b420U, 0x3d9127403d4bd697U,
  0xbc420ef3be23cd20U, 0xbaefa5783d11ca5fU, 0xbc8f950abd804d5fU, 0xbc0afefebda28abbU,
  0xbc8a0c0d3e0bf5edU, 0xbd5890e33d9eebe5U, 0xbdd6d819bdf2da6cU, 0x3d2f3a293de5a196U,
  0x3d925406be018af4U, 0xbcd9a4dabd333025U, 0x3d8dd3b3bd968db6U, 0xbc7928fb3d301d79U,
  0xbd5f80ca3d664d90U, 0xbd6bf9cdbda7e8a1U, 0x3cedce223d29a39cU, 0x3cdd972d3d1594bbU,
  0x3de3057e3e19f12cU, 0x3d9604833deea234U, 0x3cf6df5cbd889cacU, 0x3d7923dcbe01e0c1U,
  0xbd849aa83d98aa24U, 0x3d8d71093db61f27U, 0xbd276781bd53abc7U, 0x3d9c83fbbdbe5666U,
  0xbdd59e493de4c58dU, 0x3df653bbbd4c6976U, 0xbd64114bbc1dfca7U, 0xbe06a3ae3dde37a2U,
  0x3df1c64a3ae5206fU, 0xbd63b64fbdd93dc0U, 0xbdbb08c5bd79ebcfU, 0x3e356e263dcc4632U,
  0xbda9a365bd0df808U, 0x3db75a963c7611faU, 0xbdfe985d3d8abd3eU, 0x3dd194153d4f2a97U,
  0xbd9d9c39bd6955c7U, 0x3db47c5ebdfcabc1U, 0x3cc3467fbd03aecfU, 0x3db51facbd9b7d36U,
  0xbc34c976be0b715bU, 0xbe02eb4d3df73d1dU, 0xbd5e9ffabdea16bfU, 0x3e2521b33d05e2a8U,
  0x3dddd58d3dfec04aU, 0x3d7b98b1bd0a1adcU, 0xbd512bddbbfdc24bU, 0x3ded82693d38ae8eU,
  0x3daeb45bbe690149U, 0x3d411cbabd7dbc8dU, 0x3d9f9380bd3c58a1U, 0x3d5a2dc13c0da94cU,
  0xbd8bcc38be00ad0aU, 0x3e0d8c6b3c8cd4deU, 0xbdb054373d67b38aU, 0xbd5acac13de18f3dU,
  0xbded2b783b63fcd4U, 0xbde40db13daae9dbU, 0x3dcdf9b1bd4d6d52U, 0xbd6f06123d8cbb78U,
  0xbcbfaf9d3d7fef8cU, 0x3dd6e5c03dab1610U, 0x3e234a063d85c4b0U, 0xbdb72ac3bd5b8a21U,
  0xbd5991233e55700dU, 0xbdff761bbd8dae8dU, 0x3d3142293e2940f5U, 0x3dbd0ff63d3687efU,
  0xbda450923cd0e97fU, 0x3c4860fd3c25fff0U, 0x3dafa54ebd5e2cceU, 0xbcdcec403dfd05deU,
  0x3e1071f0bdf40353U, 0xbdbf3bdbbe00e389U, 0xbd5e5d0abe0335beU, 0x3dee76dd3e27a749U,
  0x3e06978dbdccdc65U, 0x3dccb2fe3d9021d0U, 0x3e12090e3cd6a014U, 0x3d9a4b68be329b86U,
  0xbd1a34b4bc953701U, 0x3daa70003d6f1d72U, 0xbdbfe5ee3d45d142U, 0x3d900c8ebd99cfccU,
  0x3c917105bc2a0c8cU, 0xbe30f9783d9709e2U, 0xbd834d143d5472c5U, 0xbd328e543e0b8b1fU,
  0x3dced80f3d279c06U, 0xbd5c01c53d98a385U, 0x3d5b904bbe0abe08U, 0x3da46b77bdf6b3b4U,
  0xbd3ae030bdc421c9U, 0x3d5e69113e5a1761U, 0x3c9d8673bc91ec63U, 0x3d26c55b3c9dccc7U,
  0xbda960313daf8fc1U, 0x3dda1e2abd4df1cfU, 0x3d8ba019bdd564e9U, 0xbdf6100c3dd5d0f6U,
  0xbe3c6f463ddac393U, 0xbd35f8a03b85d0e1U, 0xbddddf5c3dc5ff90U, 0xbe20c6af3dbc3576U,
  0x3c835dfcbd8ef2fbU, 0xbe100fb83db27757U, 0x3e02baa23d0dddf8U, 0xbdd031913dd3aa0eU,
  0x3da89475bde3bab0U, 0x3ddc7099bd130ce0U, 0xbddb46023cf2fd54U, 0x3d601f5a3dab45e5U,
  0xbbda54a1bde8f5adU, 0x3d6f90a4bdae4b10U, 0x3d834175bce96bf1U, 0xbdc5b93fbdfa77fdU,
  0x3da8c006bce79f1eU, 0xbca414d3bc2ad4a2U, 0xbd3fc850bd710009U, 0x3dd11e7dbca1ed30U,
  0x3c90ee23be3e84a8U, 0x3de84752bd7bf943U, 0xbcfd06763cf1c60cU, 0xbd614c083d7a9177U,
  0x3de73983bd8c189cU, 0xbcec13c1bc1d189cU, 0xbdffdb793e02c513U, 0xbd42b22abd5ca02cU,
  0xbbbd128fbc890fb1U, 0x3c273bd4bd86d155U, 0xbdb459b43cfde671U, 0x3d48043b3d58e07aU,
  0x3ba0fe71bd42d427U, 0xbd973eb4bd14c0e6U, 0xbcbea6d53c852f27U, 0x3db8c07e3dce7e31U,
  0x3d5eb6b5be1d6db0U, 0xbdbfc4713bcef893U, 0x3d0afa313d6ebb68U, 0x3da58fb1bae59d7bU,
  0x3da2da103ceb7229U, 0x3d95b5443d0048cbU, 0x3d0420b73dede704U, 0xbd1f924e3d9ba69eU,
  0xbe10d85f3dc69f15U, 0x3de5d2fabe00f770U, 0x3d43d8723e015877U, 0xbcb71254bdc58facU,
  0xbc5f10cc3e1ae64aU, 0xbe0d83b5bcf96f3aU, 0x3ceb13743de1335cU, 0x3dd3cc68be22f33aU,
  0x3e1737273e0f9a4fU, 0xbdb70f8abd664102U, 0x3cb9e4b0bd811c47U, 0x3e1236353dbbe85eU,
  0xbdd5e59c3df5abc1U, 0xbc61618f3dee97acU, 0x3cb53ae4bdc701e4U, 0xbdadf7cf3df725f3U,
  0x39f8f77cbe0aa48eU, 0x3e107bc63d8b0213U, 0xbd00f0943d80be29U, 0xbe0044263db618c7U,
  0xbc1836463d047d25U, 0xbcb3ce25bb20e5f9U, 0xbc45b297bcbf479fU, 0xbdbcf40d3c3ceff1U,
  0x3dd067933e20785eU, 0xbd9b36733e0ea060U, 0xbd3696533de8773aU, 0x3c09b3d7bd1899beU,
  0xbdc1005c3e377cdbU, 0xbd12c1653b94be82U, 0xba88e754bdf39a50U, 0x3de738bbbdb8a368U,
  0xbe2d7a4f3d4fe805U, 0x3ca062e13de785dcU, 0x3e082bb53d60cfddU, 0xbdae55f53d1bfa55U,
  0xbded96bcbd9d44dbU, 0x3d9e6edd3ddb8be7U, 0xbb8ac35b3d5924caU, 0xbd006b593dd6fc58U,
  0xbe29d99bbddee386U, 0x3d8cff943d2c5b05U, 0xbdad6e6c3dd447baU, 0x3dc0ee263dcf124fU,
  0xbdc8bb64bb8b17adU, 0x3c14a0973da972c8U, 0xbc83a3a83dce5ad1U, 0xbda025213dd53e07U,
  0xbddff56fba9a011fU, 0x3cf112ef3c480c9eU, 0x3e0366a73d6fc204U, 0xbcd9ebb83cfd18ccU,
  0xbdb0bc853db8383dU, 0x3cb4d13b3de205c7U, 0xbdb87760bdfe90e9U, 0xbd8a16e63d901971U,
  0xbd210404bdc89c7eU, 0xbda2673f3e0d7d25U, 0xbe0c62e03da8bf4bU, 0x3de36c743dcbc4bfU,
  0xbd6e5133bd9d4d1dU, 0xbdfe37dcbc9e91a3U, 0x3daef100bdd77f8bU, 0x3db801013d9da139U,
  0x3dc2b1293be3e719U, 0xbdce3669be0d56a1U, 0xbddf49163e0ebd63U, 0x3da57779bd4d0aa2U,
  0x3c3bcf65be257846U, 0x3e388a7d3cbb65bdU, 0x3e161a22be2309d1U, 0x3c7e63e0bcd57c9aU,
  0x3de7083abe0c961cU, 0x3ddf25c2ba7611d1U, 0xbdb5ca463d220f44U, 0xbd10dd4ebe2c1dc5U,
  0x3e255663bde2c554U, 0xbb7e2ca4bdac83a4U, 0xbcf5ecd3bd29d2e4U, 0xbd23577f3d92ef4eU,
  0x3d1494dd3c8bcfaaU, 0x3d6936bbbb3f3df1U, 0xbd92572dbdf34960U, 0x3bb46fc83d1b360aU,
  0xbdf292edbdf1b2a3U, 0x3d9367d8bc835f75U, 0xbd828dedbda518b6U, 0xbcadfebdbd2de91bU,
  0x3da939ddbb9d05ecU, 0xbd09a674bdeb08eeU, 0xbd9f146b3dc726c0U, 0x3d5f9c893da3aeb4U,
  0xbdfa31f73d67c68eU, 0x3d0be0363d5d1d7eU, 0xbd5b3db5bc96ad8fU, 0xbe0bc7bebde4452eU,
  0x3d54c0423dfb8458U, 0x3e128629bd924592U, 0xbd26bf593d98db98U, 0x3cb9a3223d607995U,
  0x3d8c37903d4dd288U, 0xbdedef3a3d89cbb0U, 0x3dc912b1bd94d283U, 0x3de2c581bd9a4e57U,
  0xbcdc1c4e3cf72803U, 0x3de810dfbbcd07adU, 0xbd88b372be019cb9U, 0xbdcf64a4bc880b40U,
  0xbdbfa7203d5ea4e5U, 0x3e13f059ba912443U, 0x3dd0c430bb7a629aU, 0xbe3152cdbcbc0a78U,
  0x3dfece093d863215U, 0x3db29fbb3d4f044bU, 0x3dd5c378bd8482fdU, 0xbd8b08adbdbb9ac4U,
  0x3e02936b3d72f466U, 0x3e0f5ec7be040ca0U, 0xbd4ee515bd85d157U, 0xbd8fa152bdbac01dU,
  0x3d91f70b3dbb5aabU, 0x3ca7ec293c3e139fU, 0x3dc006353d7fa8c1U, 0xbdd97df63d530133U,
  0x3c55e10ebc37afcfU, 0x3e173a12bd1895e8U, 0x3c3e6837bdb14d7bU, 0xbe0f48bf3dadc4a2U,
  0xbcad83f9bd561984U, 0xbd89c7c03e18e639U, 0x3c4304823e0cf56eU, 0x3d007188bd1a4b83U,
  0xbda78afa3e01e6a0U, 0xbd968fc2be0e5154U, 0x3de0d5a6ba04c223U, 0x3ccd5c093bd81540U,
  0xbe013dbfbdb13b14U, 0x3d8fe3893acd4e8eU, 0x3d4168a33d8e3d3fU, 0xbe258d54be0e3576U,
  0x3c4cee9abcda3935U, 0xbdcbca19bdd5f30aU, 0x3db98793bd897e5eU, 0x3e0de7833d1f0f37U,
  0xbcfb3122bdeaf526U, 0xbd2e93f03deb61e6U, 0x3ddd492cbd7a0c18U, 0xbe06ed333d8ee701U,
  0x3e255b153c3cc46fU, 0x3e0a10173ccd9221U, 0x3e1802c7bd8d70f7U, 0x3d31d04cbe13b585U,
  0xbdf4a7333c97ed39U, 0x3e37e583bd201033U, 0x3e0fd569be1f95d0U, 0xbd42526c3db79493U,
  0x3cac0d043d9917a8U, 0xbe143fd3bdec637dU, 0xbd3730d83cde038bU, 0xbd8f7039bdd0b168U,
  0x3d9e57e03cb6b1a3U, 0xbccf280abde86fcaU, 0xbd65de573d3f9314U, 0x3dc64dd1be0a025bU,
  0x3d96dcde3daddabbU, 0x3daef3e5bda0b942U, 0x3e1c9307bd9e6436U, 0xbce84abcbce19936U,
  0x3d30605dbceeb0c5U, 0xbd94ec31bd8d12c2U, 0x3ddc24da3de18d27U, 0xbdbc69e93de7badaU,
  0xbd3164223dc72936U, 0x3d2bf5b5bd3fdbf6U, 0x3c8701d53d14944dU, 0xbd210dc93e0869b1U,
  0xbdf2324dbd00ee1eU, 0xbe0fa30b3e30d88cU, 0x3b5168ee3d84472eU, 0xbdadc3e1bd5e0440U,
  0x3d62a0ffbd2c4c07U, 0x3e2acff83d6466cfU, 0xbdb37dd3bd7dc523U, 0x3c2e9c133de519d3U,
  0xbd533f3dbdaf1571U, 0x3e0251c7bdb19ba4U, 0x3bfc2561bdd2f263U, 0x3c9bbd053d04be7cU,
  0x3d9abcef3d0e72faU, 0xbe08ea7cbb149957U, 0xbd869b5d3d49870dU, 0xbc0654053cfc351eU,
  0x3cef464c3c389d41U, 0xbe0f5ca23d0a05caU, 0xbcc9ba773e1196faU, 0x3dfdd106be313698U,
  0x3c9f7446bdc2b66eU, 0x3db58b4a3dd4c2c6U, 0xbdb209353ccf619eU, 0xbdba1d47bd4d8f52U,
  0xbcb9ef27bdb7d18fU, 0xbd77f7c73d98554dU, 0x3e201188bcae06f3U, 0x3b14f0bfbd0b9fdaU,
  0xbd88f7713e21ea0dU, 0x3d01de2b3df47423U, 0xbd93e58cbde4f80fU, 0x3cb346933e1036f7U,
  0x3d588d01bd420eabU, 0xba4061b0bd13ee5dU, 0x3e02b1e73d3f65e1U, 0xbdcdba143a852ba1U,
  0xbd4756c13db261c6U, 0xbd2fb19cbe4509f8U, 0x3e25ec3e3d45fa14U, 0xbcbc17e93d674c3dU,
  0x3d26fcd53d899b0bU, 0xbdf0ea91bdd3989fU, 0xbcb01b3bbde80047U, 0xbd3ec60d3dcea55eU,
  0x3dc2015f3daad322U, 0xbb2dd332bdc5fafdU, 0xbcf7175a3e0dd942U, 0xbd2ea29ebc2a4c7cU,
  0xbddf0ae93c2dbc7dU, 0x3d9500cdbd95efc8U, 0x3e0490c53d5849c8U, 0x3e108ed73da5998cU,
  0x3d95fd35be003616U, 0xbca6df9bbda02a12U, 0xbddcf6653d24c4a1U, 0xbcbbb9003d0e4687U,
  0x3dbd5fe8bc7336ecU, 0x3db636cfbcc1ae53U, 0x3bf4d0c33d7e69f2U, 0x3dbe4d8d3e429a52U,
  0x3d236181bd6fe26cU, 0x3d2c349d3d290f8fU, 0xbd7c1864bd4bb95dU, 0xbdc31345bd9ca5d4U,
  0x3cc61088bcff29f5U, 0xbd931a313c4e7215U, 0x3d2d126ebc94f08dU, 0xbd27535abd5915dbU,
  0xbd9fbb93bd3d1d13U, 0x3d47d6b1bc9c148bU, 0x3d2ac3703cdf1673U, 0x3e12ba51bdc62afaU,
  0x3de12cccbd8f3ca2U, 0x3d1bf3c23ba4e165U, 0xbda9c8c5bdf603d5U, 0xbd911ff1bd22138fU,
  0xbd860d4dbd86eb7eU, 0x3e21cd8f3d8c4c4fU, 0x3da1299bbd84b69aU, 0x3cc893d0bd0e24c2U,
  0xbe134cf43d1a10ddU, 0x3d56afa8bd82c4d9U, 0xbdd843033d9e113dU, 0xbe034fe43dc65a06U,
  0x3d9d7b98bbfc45b0U, 0x3cf611fb3da86d24U, 0x3e05ae7c3e1c041dU, 0xbd2aa80f3d286978U,
  0x3bdddb8c3d1acf58U, 0xbe1a579c3d3890e6U, 0x3dc55c0f3d97d6dcU, 0xbe0f27173d83d7a2U,
  0x3d9ffd4abcac82fdU, 0xbb495ea8bd93d0a3U, 0x3e126a3b3d7e4606U, 0xbd23e795bdf0adf7U,
  0x3e0c58063cf56541U, 0xbe13bcb93da2f5bbU, 0xbd2872173dd6a96cU, 0x3cb6bc94bcc9be7aU,
  0x3d89b244bdc441cbU, 0x3db732abbc954cefU, 0x3db06d6c3e03c618U, 0xbd02b3b2b9c6a27cU,
  0x3d9f2164bda44cc1U, 0xbd2c4285bdadce1fU, 0x3e42482cbd18e660U, 0x3d7508f5bdc0620cU,
  0xbda148d8bda562feU, 0x3dfaac793dbd8b76U, 0xbd88a613bd8e3ec4U, 0xbdaccd75bd96f588U,
  0x3dd6a251bd58ff0cU, 0x3e23bb8f3de57ca1U, 0x3d3b1f123dd6db13U, 0xbe2186cbbe266539U,
  0x3c67a82cbc0e8414U, 0x3d9788cabdfd5785U, 0xbcd502413dff0dafU, 0x3dd1488bbcf877daU,
  0x3d3fb079bcf7c2d1U, 0xbdbd9fe53ce194b7U, 0x3b8425a9b9bb4b47U, 0xbd984d2a3ca94379U,
  0x3e0caec8bd85f49dU, 0x3d8551543d8c656dU, 0xbc9153d23ddeca28U, 0x3b67a73e3d9068a4U,
  0xbde73c7fbe17360dU, 0x3da19e2ebde53460U, 0x3e2a979e3dcd0f83U, 0x3c6a0ab5bd0ac283U,
  0x3db385153d5210c0U, 0xbe2ac589bdc0aab3U, 0xbcc7d9e23c89f29aU, 0xbd8eb6f43da5c4caU,
  0xbdf965d53dc3b15aU, 0xbcd1249abca478c8U, 0x3cb34e58bd32cd02U, 0x3cb799c8be153c27U,
  0x3d1f6ac63de7b30bU, 0x3d0e63273d7bcaa0U, 0xbc0f18843db83aa9U, 0xbdf2de77be1f2387U,
  0x3c415b933c1c2888U, 0x3d0984ccbdb8488aU, 0x3c70e07fbbfea66bU, 0x3daf0e68bdb5d015U,
  0xbdcb639abe018049U, 0x3dec575f3dceee1dU, 0xbd0141fe3dc41a76U, 0xbe1e109fbd0432a3U,
  0xbce78d353e0cdf35U, 0xbd6bad0a3e0c9ff5U, 0xbdef6ff03b8cd2acU, 0xbd0739cf3dd050beU,
  0xbd95b38bbd237f02U, 0xbd8df3553e1fe353U, 0xbd61ef0dbd969e1eU, 0xbd6b28393d9cd655U,
  0x3de3ba8ebc8cedc7U, 0xbddf24f9bddb532eU, 0xbbfc0a3a3d84b3dbU, 0x3ca0bf5fbc84b2d8U,
  0x3e264b5bbdf99e19U, 0xbd8be20c3dfd1d4bU, 0x3d669d833d5a90d1U, 0xbe0541323d222d60U,
  0x3d56e645bd3f8f6fU, 0x3c924168bb711869U, 0xbe1ae3df3cf4f631U, 0x3d71c7f4bded6c58U,
  0xbd6e206ebe19da2eU, 0x3e2d6cebbdd8d44bU, 0x3cb9c6b03db0dfbbU, 0xbdf77730be3197c1U,
  0x3e0104c63dd568adU, 0x3c9b6ebd3d07c87dU, 0x3de644303d37d154U, 0xbe03aadc3cab36d7U,
  0x3cb1c4463aca7465U, 0x3c8f8bfc3e351944U, 0xbd7d45243d12a1f0U, 0xbdc703e03cbceafdU,
  0x3d6bdd583d23cde0U, 0x3e30c850be1886caU, 0x3dba5550bc062f92U, 0x3c97623c3c01848dU,
  0xbdff11573df77a34U, 0x3d2a730a3d13ba61U, 0x3ca6d9b13d254f3aU, 0xbe061decbdea6b29U,
  0x3db9a1debd960460U, 0xbd37de19bd9461ecU, 0xbc6e5d8a3d8dd1e4U, 0x3d8bb861bd9c41c4U,
  0xbd5c47473dad5297U, 0xbce68964be04cfd3U, 0xbd1b3e34bdf69edaU, 0xbd528a053db2cb5cU,
  0xbd59f7243dc9c02fU, 0x3d93b8b53de0693cU, 0xbe0093ef3b7652d3U, 0x3decb0573dac309eU,
  0xbc978e8e3dcbb9eaU, 0xbc95bd30bd2dae19U, 0xbd7f069fbdbd99bbU, 0x3d11af7e3aba08beU,
  0xbe3a22073b2a568cU, 0x3da1c0503d3cc9dcU, 0x3b491a403e037cd7U, 0xbc22598b3da6c43eU,
  0xbd83c8f1bcce2979U, 0xbdd9bdcabde70696U, 0xbdd1594b3cf7aa77U, 0x3e2c26f13cf4acdfU,
  0x3b71f180bd8d00e1U, 0x3db18118bd9eb982U, 0x3e2056ef3c74ce3aU, 0x3dcb0159bdc6c1e2U,
  0xbc001196bdc41ea7U, 0x3e0d7dd93d813bd9U, 0xbd1442893deefe0bU, 0xbd7688333dc2887bU,
  0xbc94ee6cbd7b128eU, 0xbb9fa67f3d8262d8U, 0xbdf77e1a3dd0b5b0U, 0xbbd22aad3c2422edU,
  0xbdc81c343dd02272U, 0xbd3bf1a3bdc10496U, 0x3c81c8f53ca627d1U, 0x3cb471f13e03e54fU,
  0x3d9296063db4deeaU, 0xbe0a8889bd4ede79U, 0xbb846b543def6ceaU, 0xbbddf82ebdb6f554U,
  0x3cccb30a3da28882U, 0xbc0de0abbd009a5fU, 0xbd1621793de0b4c7U, 0xbdc57c42bdec3d5bU,
  0x3c0530c1bd2a9f21U, 0x3d734600bd058208U, 0x3da71f2c3dbcaf81U, 0xbd5e3a9e3df0c2e3U,
  0xbe1c7e123e24385eU, 0xbde4259f3e223ee8U, 0xbdb7610ebdaee239U, 0xbd23a54b3d9f6823U,
  0x39da19b9bcd0d6deU, 0x3d7fb803bd3e59a6U, 0xbdf024b9bc86f819U, 0x3dcdbf843de9c901U,
  0xbbc95b40bd22d2cdU, 0xbdacc6b53de8a6a8U, 0xbc41a0c0bd414be3U, 0xbd89e84c3dbc37aeU,
  0xbe24b943bc3865f4U, 0x3de385953d0d410fU, 0x3d95c853bd4de02eU, 0xbd66628f3d5b084fU,
  0x3e06d610bd651388U, 0xbb88a0e7bc3778f5U, 0x3dc5519abe0009d3U, 0x3df78cc8bd1e5079U,
  0xbbeb00123c12f128U, 0x3d383b893c457062U, 0x3e0ddccfbdb68db0U, 0x3dafb6bebd252193U,
  0x3b0f62b8bddf0825U, 0xbdc3032a3d974656U, 0xbd25174bbdcb756aU, 0xbc3ea6e73d93d729U,
  0xbd645c4bbcfd2282U, 0x3caa58dc3c937394U, 0x3d1139963db51e83U, 0x3db6a7d4bdaf56bcU,
  0xbc6c1ba83cfc6818U, 0x3b902909bd9d9047U, 0xbe2406a73e1d4a03U, 0xbd66c2933ddabeb4U,
  0x3d14d5db3d69ecd9U, 0xbd9208363e098d99U, 0xbd984ac4bd7b53fdU, 0x3cb17870bd93c9f1U,
  0xbd5063dcbe1177e7U, 0x3d8fd196bd872100U, 0xbc0bd6723d904ab8U, 0x3d5432e8bdbe2281U,
  0xbca4fe243db3ae39U, 0x3d8b7c9bbe08c22bU, 0x3dbe8322bde293d7U, 0xbdcb48f13d423bd9U,
  0xbcb2b9213e0c0b3bU, 0xbc84a7073d4148fbU, 0xbc63ea12bbcfae38U, 0x3e17dc1ebdb62554U,
  0xbcb52391bcff1f0fU, 0xbd7e5b3d3dc7cf92U, 0xbd4704213dd4bbcdU, 0x3d9860443e00e807U,
  0x3de69a2c3d5dda8dU, 0xbd85363cbe1eed62U, 0xbd45cdf0bcd311b9U, 0x3d64934fbd6b75faU,
  0xbcf48db2bdb36e63U, 0xbbe13acebd67dae6U, 0x3d2d6fddbd90a44bU, 0xbd10d91bbdb31cb7U,
  0x3d26f7be3dd1e989U, 0x3d01aa8e3dd0fb25U, 0xbe01186cbdd5eee5U, 0xbd0b0a06bb4208b3U,
  0xbd46f257bd5b650aU, 0x3dd053813da606f4U, 0x3dd17a42be1092e2U, 0xbd4556e03dcbf143U,
  0xbd8756933be9a2ddU, 0xbd9c8c4ebdc30eb1U, 0xbdced6efbdf942c8U, 0x3c52d1693c8b3c7cU,
  0x3e27dd10bc9a4e88U, 0xbdada019bd76dc38U, 0x3c39ae413d3737bbU, 0x3cbec3f7bd897300U,
  0x3d88072abcf390adU, 0x3df67479bdc47b6fU, 0xb8bb51703dcc249cU, 0xbc2767c6bc386e06U,
  0x3c430d753d43dcfeU, 0xbe0c160a3cfc3f22U, 0xbdb419583d912651U, 0x3c9c0175bdc68a1aU,
  0x3e00640e3d0a002eU, 0x3d36f558bcf75da8U, 0xbc85f88ebc9daba9U, 0x3e216d52bddbe970U,
  0x3de478913ca06450U, 0xbe14b5e0bde1895fU, 0x3e184e88bdb43971U, 0x3ddf5fc33dd94d30U,
  0xbd621f1ebb7262a2U, 0xbdd1c571bd07075dU, 0xbde4ae12baeaf90dU, 0xbde04ebabd66ab02U,
  0x3e0c474a3df3bebaU, 0x3bc861c2bc85e52dU, 0xbad99380bd53d5e2U, 0x3da0c09bba5ecbbeU,
  0x3dafcdad3d938d8fU, 0xbe177d60be0dd11cU, 0xbc6199b3bc2c54a9U, 0x3c3080c23d584d73U,
  0xbe3269e63c3c8041U, 0xbd3864cb3dcc6b03U, 0x3e1c7b283d8034ffU, 0x3d6a78e0bd96ab86U,
  0xbddc303abd764237U, 0xbb48af94bcb9d6e5U, 0xbc53e90cbe12aad6U, 0x3db0850cbddfbdd7U,
  0x3d80c70bbd88cb16U, 0x3df7b21dbe0b3cb7U, 0x3e15f437bdaff3b3U, 0xbd055c923c9a7499U,
  0xbdcbf59dbdd6db97U, 0x3d91cc1e3dcfd532U, 0x3cc97fa23d05d425U, 0x3cbfbb9abdd9d6aeU,
  0xbda1c0593d44743aU, 0x3b4aa6033dd247b7U, 0xbdd26a3dbdcf6373U, 0x3b802800bc100dd1U,
  0x3d9e1f32bc937f91U, 0xbc3a40893da9d30eU, 0xbe3c6999bd162722U, 0xbdb5c2cd3d37cfc1U,
  0xbd9f163d3e814c48U, 0xbc401c3f3e0e285aU, 0x3d94ed53bbaea516U, 0x3dad07993cf1d8bfU,
  0xbdc3a7033da9fafdU, 0xbcbf1d0d3db0d9c7U, 0xbd895e7b3d6500a0U, 0x3d48e9d7bd013479U,
  0xbd8b717bbd73bfeaU, 0xbdeecdfbbd7a5f3cU, 0x3e11d2623e10abc0U, 0xbdd9d74fbb7a2e0eU,
  0x3e059578bd92ad9cU, 0x3e38bd85bdb8b0edU, 0xbd129dca3dca9485U, 0x3d8b2d86bd9e482aU,
  0xbd65e5cc3e1062e3U, 0x3da968763dc2bbd3U, 0x3d91fe203d4a8013U, 0xbd4ccc8cbd3a37aaU,
  0xbda4ae5d3c8920b6U, 0x3df8d78f3cf4b658U, 0x3e0b29583ce14820U, 0xbb10b8c33dc97618U,
  0x3dd276dcbd1e9645U, 0xbdf3a3113dbd1006U, 0xbdd0274b3e095af8U, 0x3c38e732bd0e5375U,
  0xbb67bff6bd88708dU, 0x3db36c7dbd33b6a6U, 0xbd6c7f693d7eea04U, 0xbd194da9bdf69c61U,
  0x3ca06e8cbcd9842dU, 0xbd7c3849bc4ba3b7U, 0x3c7387b9bda9266dU, 0xbd967468bd8cd2a8U,
  0x3d04d7df3e1f8fdaU, 0xbe048d94bd6b5bf2U, 0x3b64aa66bd46c809U, 0xbcff1ccfbe1cf6dbU,
  0x3e26a972baf6d3baU, 0xbdc67d633da06fc6U, 0xbdd65476be269fc4U, 0x3e17afd13dc2c9c3U,
  0xbdf0e73cbd108e71U, 0x3d612b123e02f9e7U, 0xbd4126163d72f171U, 0x3d17372d3e1e5bc7U,
  0x3cc574f2bb8b3bb8U, 0xbdc6831abb90a249U, 0x3ce247773d99f7bbU, 0x3daf36c53d416017U,
  0x3e03a4b2bd9eb155U, 0x3b3cfe553db3a71eU, 0xbd2fd6fabcc2c8abU, 0xbd9d1863bd2691b3U,
  0xbc243da33e1115ddU, 0x3cf029b33d4cefc7U, 0xbd48bbe13c9d3e64U, 0xbc670c303d41aa57U,
  0xbdbe52c4bbe77b15U, 0xbd81fdd3bd4ce4a0U, 0xbce6adb63dee388bU, 0xbd7532d1be05ef1bU,
  0xbc5ae3dcbbdd1861U, 0x3d42669f3de19ccaU, 0xbc04adecbe200f49U, 0x3dc8a1133df80cebU,
  0x3c41b4a9be0e33deU, 0x3d5685ae3dbfa59fU, 0xbdf145cf3d8a227aU, 0x3e225655bd477ec7U,
  0xbe0c1a63bd8a38c8U, 0xbd12df233da206c5U, 0x3dbc0beabdbffe4aU, 0xbd5db0fc3d1fa792U,
  0x3dd3ed15bc203b0bU, 0xbd5c3c583de2f159U, 0x3ce6992cbc82ca98U, 0xbdcd5d37bdf6b612U,
  0x3e0443f13d97b20eU, 0xbbb7ccb73d8a31e6U, 0xbe1d3a243db1f7b7U, 0x3dd34e34bc491b05U,
  0x3cfae83c3ce138f8U, 0xbdd50744bd9bedd4U, 0xbcb0f889bd49b531U, 0xbdc16049bdddb520U,
  0x3d075ea6bd14a14cU, 0x3d3b86f4bda80aeeU, 0xbdc07dffbb969223U, 0xbd8f733d3e41b645U,
  0xbe1257013d253c0dU, 0xbdeb24163da373d0U, 0x3dc0b1a3bb829d61U, 0xbd9cb309bc081b9bU,
  0x3e1c04adbda95708U, 0x3e032bd2bd0594ccU, 0x3d05359f3abe0f1fU, 0xbe0881c03dea53a5U,
  0x3db971123d419ff0U, 0x3d936fcc3dafcf2fU, 0x3d9442ebbca26ac4U, 0xbd9da5403d8dac1bU,
  0xbd55a9d33db5bd1aU, 0xbc19782bbe07c544U, 0x3cc72970bcfd2a4eU, 0xbd240781bdadec9dU,
  0xbd488c17bdd07dd4U, 0x3dfac136be132c4dU, 0x3da09bef3c5a25ccU, 0xbd826b83bdb223feU,
  0xbda7c3bf3e1855f4U, 0xbc4920433dfeaa19U, 0x3cda9c553da35881U, 0xbda49dce3c98e5d0U,
  0x3d44e5a63bf02e7dU, 0xbd1577843e1016e9U, 0x3d996d313d3121b4U, 0x3da930d3bdd352faU,
  0x3d290cdc3bf420cfU, 0x3e1f64aebda16cceU, 0xbd15f0953d81a508U, 0x3d89173d3bb77ad4U,
  0xbd913cc8be1841d1U, 0x3df2d4793e1835c1U, 0xbdea1ec2bdbe07e2U, 0x3ca9387d3bc16253U,
  0xbd925587bda82170U, 0x3ca9a9933c73075aU, 0xbe00b5d3bd80a4c7U, 0xbdf13407bbf49832U,
  0x3d4b90173ccd8e0aU, 0x3dc8e2663da03f49U, 0x3cb49a4b3dabfc01U, 0xbcadd5f53d8049f3U,
  0xbd08bcc83e300608U, 0xbbb4427b3d111885U, 0x3dd88328bc80b3fcU, 0x3d9d80d13bc1e751U,
  0xbdc7a30b3d82cf5aU, 0x3d60d3e43dc040a8U, 0xbd913a493db8f0aaU, 0x3d9ad5533e13d646U,
  0xbd46101e3daa196cU, 0xbdd0dfdf3d95ae68U, 0x3d39a1933e17651cU, 0x3e099440bdd4bae3U,
  0xbdeb50c6bd3ae68eU, 0xbd12f7953e0e4259U, 0xbd6f8717bd0f6577U, 0xbe1de3163d94cb51U,
  0x3d04d5d9bdca1eedU, 0xbdb99a9d3e179b72U, 0x3ce5941b3dd4b036U, 0x3dd3780c3be3c886U,
  0xbd56518dbd89033bU, 0xbd5fff7d3dc605d2U, 0xbd89c09e3da8fc18U, 0x3e206de6b87318e0U,
  0xbd572c3b3e34ab6cU, 0xbd221aecbda07ce9U, 0xbda4f3713d6d4584U, 0x3e3ad8843d9dae71U,
  0x3daf510e3db738c4U, 0xbd8ea94b3acdfcc2U, 0xbd78225cbbe5be1eU, 0x3c544ddbbb1fee9bU,
  0x3cc20b90bd7dba12U, 0x3dafffdb3db3177bU, 0xbd1ef2aabdd92f2fU, 0xbc7cd84c3dbf6bd0U,
  0xbc4aae79bcedc0afU, 0xbd24c133bcaec779U, 0x3dbe0b87bdc5b915U, 0x3de185473beca3fcU,
  0xbc71fde3bd661c50U, 0xbd78ea313aabb6e0U, 0x3e17133a3d407426U, 0xbda0d3e63b402912U,
  0xbd82081ebdfe390dU, 0x3e29634d3d44f8e1U, 0x3d07ed1c3dabe0b5U, 0xbe043d0ebc9036feU,
  0x3dc0692bbd619819U, 0xbdc8e804bdc5b0c6U, 0xbc953b13bd13dd11U, 0x3dccf2c53cffe698U,
  0xbd87f1583df17bf4U, 0xbd782c2a3e0fbd88U, 0xbd832277bc9c05cbU, 0xbbbe9c8e3d04f4c0U,
  0x3db0dce43da0b5e4U, 0xbe0e03713e110ca1U, 0xbc2bfec43c6cc5c4U, 0x3bc7a5b13d4fb7dfU,
  0xbd7296b1bdbce149U, 0x3e0d30033d7c2003U, 0x3d21faee3cb23213U, 0xbda6a48bbca4f3cfU,
  0x3dd07190bcbaef26U, 0xbd540e1e3dd660d3U, 0x3d511b0dbd8342f2U, 0xbd88a6a9bd9423d8U,
  0x3d3dd0e93d5f6d7fU, 0xbb5ef093bdfcea82U, 0x3d6a3b563ca9c988U, 0xbb86e90dbde70d2cU,
  0xbde2ec933c991120U, 0xbd3126d3bdb0d78fU, 0x3db67f963d92fc37U, 0x3caec509bdcede4eU,
  0x39b18a74bd004b38U, 0x3da942c73d4303c1U, 0xbdfc94d23d8b60e9U, 0x3ca23811bd0e06fdU,
  0xbdd08245bd84de31U, 0x3dc0f567bcf3a64cU, 0xbc9ef487bc893f9cU, 0x3c561c833d22f012U,
  0x3e0ce6d43d8eb172U, 0xbd8a803f3d3ae502U, 0x3cbc012ebd72eecbU, 0xbd5bd27cb9a10902U,
  0x3c1e6d3abd985852U, 0xbd72e4a4bc4da5c7U, 0xbcff7beb3db7e8f8U, 0x3dd474aa3cb2e8d2U,
  0x3dc8ef4fbdd177b6U, 0x3de81bf2bda42e63U, 0xbc9177a03c91d02aU, 0x3de37edc3debe711U,
  0xbdd0f1df3c438a4aU, 0x3deb65b9bdb70ce3U, 0x3cd31974bda743a1U, 0xbdcd3df33d22d0c4U,
  0x3d7f6dae3d87d6adU, 0xbd0e3926bd4b16b1U, 0xbb0eb0da3ce5f443U, 0xbd6dd54abcc3db38U,
  0xbd4f32cdbc08e890U, 0xbb8a2f113baec68fU, 0xbd1990e3bc0227e2U, 0xbd33c01ebcb94806U,
  0xbcbd6aa5bd37b48bU, 0xbca94dc33a8e596cU, 0xbd92536cbd3871e6U, 0xbd034db8bd9134beU,
  0xbd210b113c8a7a30U, 0xbd1c7847bde2a038U, 0x3d642ed7bc62a462U, 0xbd54e9bcbd756415U,
  0x3d6814dbbd6e43a4U, 0xbba6d5e13d69ee6fU, 0x3d6955efbc0cd8feU, 0x3cb211c43c5e8256U,
  0x3cbdc1ce3cfd97e6U, 0xbcb93ebf3c9b7454U, 0x3c925c88bcd8de87U, 0xbd4c8cd1bcdae381U,
  0x3d19e82c3cb97edbU, 0xbccafe17bd2f720fU, 0xbd45203b3cfbad96U, 0xbcd9ae4ebbaae3afU,
  0xbe056ac93c44f305U, 0xbd93d810bd22fb9aU, 0x3cf77a0c3c29d9a0U, 0xbd6cf0adbd48ffc0U,
  0x3cbd489fbd5630cbU, 0x3d14442bbdf2ad92U, 0x3cbbac4abd97571aU, 0x3bfd5049bd056ac1U,
  0x3c8040b23d1aa5f5U, 0x3c67a144bc05bbf5U, 0xbdcad183bd9c901aU, 0xba6b445e3d159dc4U,
  0xba0faf223cfdce6aU, 0xbd74cb8fbd10716bU, 0xbce0b7a23da3d694U, 0x3c16bcfd3bd775c9U,
  0x3b54ad4dbd4fb3c4U, 0xbd0932adbd5e7b24U, 0x3c196a94bd704fc5U, 0xbd821177bc25b82fU,
  0xbd15eeabbd7486e4U, 0x3cad8b3f3b00ba2cU, 0xbc26bdc9bd768659U, 0x3d75ccac3d146f26U,
  0x3caf722abcc2d3a8U, 0xbb68060b3ae1b535U, 0x3d0e6e23bb76c231U, 0x3dadcaf53d53d068U,
  0xbc7f2e213c93bd08U, 0xbdd4f7c13c9706beU, 0xbdd1e03cbde463aeU, 0x3c88500a3b498529U,
  0xbcac65d73d0f3477U, 0x3cc311f93d054287U, 0x3b90ae9fbc03872fU, 0x3c5761143cb2919bU,
  0x3c510504bd6812edU, 0x3d426528bcef9ed8U, 0xbce83f11be074478U, 0xbb31cc30bc0986dcU,
  0x3cbfe96bbcafe7feU, 0x3d422e713c2bc6f7U, 0x3c1d7f70bdbec4bcU, 0xbccbeea6bb84736cU,
  0x3d10658ebd651215U, 0x3bc23256bd39f07cU, 0xbc8010313da3ed5dU, 0x3c496a983d5ee656U,
  0xbd669f84bdbf95fcU, 0xbd2287c5bd04d6d9U, 0xbcfda2d03d20dcedU, 0xbc9bbe4bbcef3476U,
  0xbc1318eb3d0652e1U, 0xbdfd43dfbb1bd3c0U, 0x3c923c9f3b9e7f75U, 0x3d57d0a5bd4b159cU,
  0x3e069e2e3c0e5482U, 0xbbb6f161bcca4163U, 0xbcf446b33d149c86U, 0x3cb6ad20bd9e0761U,
  0x3d97ab50bcb8c2a8U, 0xbda47832bdb995f4U, 0x3cf2d3b63d1646b1U, 0x3cc87fd63d04d649U,
  0xbc424431bc963f20U, 0xbced1b39bc7c67e0U, 0x3d27bbe13cae4db1U, 0x3cd1cfebbd0f82d5U,
  0xbdbfdf40bbc9f7b4U, 0xbd47471b3c52a8c5U, 0x3d1607393c4888fcU, 0xbc9a2fa73c597dceU,
  0xbd7d47d8bddd3de2U, 0x3cbef6d8bd4201a8U, 0x3cd2f214bb0435d6U, 0xbdb595df3d415443U,
  0x3d14ea2f3d77a4d0U, 0x3d3121b03c78714aU, 0x3c261a633d0eaa62U, 0xbcd2dd2b3c084ab1U,
  0xbdeb6248bc7c4c62U, 0xbbff20c2bd89099fU, 0x3c18187c3d15a1dbU, 0x3cc2a5b3bdae8eebU,
  0xbd8dc8dabbc47bfaU, 0x3da70763bd94422aU, 0xbc66d5f9bd8ae533U, 0xbdfaf2fabd4fe89dU,
  0x3c80bf99bbc3a7f2U, 0xbda322313b7f86dbU, 0xbd334f31bd3c68eeU, 0xbd0775333c87d64dU,
  0xbd6bf2afbc01a3fcU, 0x3c7ebd96bc798262U, 0xbbe04a90bd4dff65U, 0xbdb3c875bd585708U,
  0x3d481b793b49f17dU, 0x3d233280bddb69f0U, 0xbc567f31bdb99e49U, 0x3caf98d83d5778b2U,
  0x3d1b7f31bbf2fa6fU, 0x3c6253d5bd508637U, 0xbba987cbbd9169eeU, 0xbd1d2dd1bd345bd2U,
  0xbc4d13c53bf75a86U, 0x3cdfdcddbd8bbb9eU, 0x3c427447397c3014U, 0xbbd66fe4bc323687U,
  0xbb5606d2bcb831e0U, 0xbb5847113d1ba13cU, 0xbbb62f83bd460a1fU, 0xbceb4decbd08c707U,
  0xbc8f96df3d497043U, 0xbc8dee3bbd626d24U, 0xbdc00968bd845212U, 0xbd812601bc47bbb4U,
  0xbdc9766abd85d116U, 0xbd4f92c8bc8e1430U, 0xbc30ba013cb80c8cU, 0x3d3c0d0dbe2049f9U,
  0xbc5ef907bd2a24d7U, 0xbb21640dbce391daU, 0x3d23218a3d33e500U, 0x3c13abf63c9c3333U,
  0xbd6bcda6bda2e364U, 0xb7d76b503cb24facU, 0x3c5d0a70bd199f5dU, 0x3d4afb743bf1e3eaU,
  0xbdbc7898bc48aa2eU, 0xbbb40dfd3c844ec1U, 0x3cce7efe3be72b4dU, 0xbb960e37bda014c0U,
  0x3bfd63c43cd721eaU, 0xbd675c453bec2b90U, 0x3c6f891cbb45d044U, 0xbceee10fbdaab411U,
  0xbd7cc263bc29c2a7U, 0x3d1fbcf9bbb50cfaU, 0xbd2379adbdbe1a16U, 0x3cbe45593b3fb540U,
  0xbd04bb27bafec37fU, 0xbda3ded2bdd52dffU, 0xbc77d73abd7fca1dU, 0x3d81cd44bbce93f1U,
  0xbd8ed5d9bdad601eU, 0xbc647110bc3254daU, 0xbc2e9ac5bcbe2e3dU, 0xbd9902e2bd25ce48U,
  0xbc3cf2e0bcbfcfb1U, 0x3c1ed00dbc0ac062U, 0xbd57b92cbc3c31b3U, 0x3b77a342bd02f41aU,
  0xbbf2d8103c8714c8U, 0xbc9b5c00bbb53c29U, 0x3b21afc2bccbf902U, 0xbc376021bce8936aU,
  0xbce885163cefabbcU, 0xbd1cdb023ca6a9c6U, 0xbcf01dcc3c3de47bU, 0x3d23a2d2bdaf2126U,
  0xbd94aa9ebbab6f4fU, 0xbbe2dc8cbcdb0cb6U, 0xbb9e27b3b9f68968U, 0xbd22aa09bd8e33b3U,
  0xbd0a42843db02937U, 0xbcecd2e9bd349c38U, 0x3cec282bbce3d1b5U, 0xbd1aad88bd9e7b0cU,
  0xbb434689bddf9d2bU, 0xbda39d85bc9cacc5U, 0xbd1862bebd972057U, 0xbda888fb3d8d0879U,
  0xbf3b03edbf3c49c4U, 0xbf387840bf39be17U, 0xbf35ec93bf37326aU, 0xbf3360e6bf34a6bdU,
  0xbf30d539bf321b10U, 0xbf2e8e91bf2f8f62U, 0xbf2bbddfbf2d03b5U, 0xbf293232bf2a7808U,
  0xbf26a685bf27ec5bU, 0xbf241ad7bf2560aeU, 0xbf218f2abf22d501U, 0xbf1f037dbf204954U,
  0xbf1cc050bf1dbda7U, 0xbf1a84c2bf1b31faU, 0xbf176076bf18a64dU, 0xbf14d4c9bf161a9fU,
  0xbf12491cbf138ef2U, 0xbf0fbd6fbf110345U, 0xbf0d31c2bf0e7798U, 0xbf0a6118bf0bebebU,
  0xbf081a67bf09603eU, 0xbf058ebabf06d491U, 0xbf03030dbf04a4b7U, 0xbf00d2efbf01bd37U,
  0xbefc7dbebefe6313U, 0xbef6c00cbef8f98bU, 0xbef1a8b1bef421f2U, 0xbeecc155beef8d14U,
  0xbee779fdbeea540fU, 0xbee2d7e7bee41decU, 0xbeddcd18bedfdb0eU, 0xbed8a502beda3616U,
  0xbed3ef33bed525caU, 0xbece8b15bed0c928U, 0xbec996aebecc01c8U, 0xbec38253bec66233U,
  0xbebea452bec174ccU, 0xbeb97530bebbdb77U, 0xbeb377d0beb6d3c0U, 0xbeaf5f70beb15907U,
  0xbeaa5eecbeacc9faU, 0xbea5ccb6bea78ddaU, 0xbea0e7c2bea2e9c5U, 0xbe9b1af8be9ded5dU,
  0xbe965036be98a8fbU, 0xbe914f12be93cef2U, 0xbe8b9e76be8e5e90U, 0xbe86c5edbe894007U,
  0xbe816c0fbe84003eU, 0xbe799280be7e517aU, 0xbe6f341bbe73de31U, 0xbe653a7dbe6a4270U,
  0xbe5aec9abe5fcbadU, 0xbe5082a0be55dc3eU, 0xbe462c03be4b10ddU, 0xbe3bf565be411dcbU,
  0xbe318c00be36e282U, 0xbe275833be2c61b8U, 0xbe1cdc93be21ea09U, 0xbe12f7a1be17ddd7U,
  0xbe0863e4be0dc96fU, 0xbdfc3ac1be031bf6U, 0xbde7e09bbdf1ec8fU, 0xbdd3d826bdddc9b8U,
  0xbdc029e3bdca25c4U, 0xbdabc5e2bdb60daeU, 0xbd978668bda1815cU, 0xbd839114bd8d9d76U,
  0xbd5e2d58bd72b03aU, 0xbd35ad56bd4a0d97U, 0xbd0d9d34bd2190acU, 0xbcc9dfecbcf2dfc4U,
  0xbc6d7104bca07599U, 0xbb93416ebc1af6e5U, 0x3bb278fd39f27666U, 0x3c7b2a4d3c29f8e7U,
  0x3cce56ff3ca5e032U, 0x3d0f535c3cf67704U, 0x3d37ea833d235824U, 0x3d6014953d4c6cb7U,
  0x3d8450a33d748be5U, 0x3d98c92c3d8e9b98U, 0x3daccca13da2ee55U, 0x3dc1052b3db6df9bU,
  0x3dd54e3c3dcb36eeU, 0x3de9e3cb3ddf897cU, 0x3dfde06b3df41360U, 0x3e0911093e03eb25U,
  0x3e1301383e0df660U, 0x3e1e22773e18bc0eU, 0x3e28110f3e230fedU, 0x3e31b3ff3e2c7068U,
  0x3e3b70e63e367253U, 0x3e4616b23e404ff1U, 0x3e514c873e4c983dU, 0x3e5c23ca3e5678a3U,
  0x3e66a7d33e613699U, 0x3e701e163e6b280fU, 0x3e7aa02e3e755f91U, 0x3e81dd713e7dfbd6U,
  0x3e87507c3e843089U, 0x3e8bcff63e89c02fU, 0x3e91e1513e8f3f41U, 0x3e96a8273e942305U,
  0x3e9c1c4f3e98fa40U, 0x3ea0627c3e9dfd58U, 0x3ea5a3803ea27ffaU, 0x3eaabada3ea8be7bU,
  0x3eaf3f453eac7c1cU, 0x3eb430053eb1f19dU, 0x3eba00e83eb78bedU, 0x3ebed0a13ebbcbe7U,
  0x3ec42f9d3ec158fcU, 0x3ec946f73ec6bb4aU, 0x3ece5e513ecbd2a4U, 0x3ed375ab3ed0e9feU,
  0x3ed88d063ed60159U, 0x3edda4603edb18b3U, 0x3ee385253ee0300dU, 0x3ee7d3143ee54767U,
  0x3eeceee43eea5ec1U, 0x3ef201c93eef761cU, 0x3ef719233ef48d76U, 0x3efc1fa33ef9a4d0U,
  0x3f00a3ec3efebc2aU, 0x3f032f993f01e9c2U, 0x3f05bb463f04756fU, 0x3f0846f33f07011cU,
  0x86988e738d98899fU, 0x91a89e9ba187907aU, 0x95a2839fa98d7f83U, 0xa58b9eac727db193U,
  0x7c9f7ea6ac77a493U, 0x9d997faa78965aa2U, 0x7487ad8e969f8686U, 0x9175879092998562U,
  0x9c85a58d82998583U, 0x8b9c9b8a877d8aa3U, 0xb78d8c658bb8a58eU, 0x9891a094b1a8b1a2U,
  0xa68c9c9b92a09d84U, 0x86a8a189a48e9698U, 0xa29e8a968d87778fU, 0x978b92a5a88d9889U,
  0x9991868e86999682U, 0x96879fb187a8939fU, 0xa084b39192986b7fU, 0x9aa39e88a58e9a94U,
  0x9386ad738d936f8aU, 0x9d9b887672837799U, 0x8888929499a88499U, 0x93a4857f8ca2b39eU,
  0xa09d769a749a819fU, 0x8874909195b19f84U, 0x8586a57f789072afU, 0x99ad9c97a9a79c8aU,
  0x8d8f918764899aa7U, 0x828a688b91a96399U, 0x84b79e847ba199b1U, 0x71bc928f88916b74U,
  0x8f8999ac7e8d9c8cU, 0x94927e86aba1947dU, 0xa0919b7190ad9ab0U, 0x917e96ab92a48e90U,
  0x9ca18b88848c8ab5U, 0x988687929d9c7f90U, 0x8da191a2a47c8985U, 0xa48fa87ca6969da8U,
  0x886d7cb5ab7a8c92U, 0xbd8c9982838a8c84U, 0x96a082a99d89a896U, 0xa7997da8788fab7bU,
  0xa695889784ac988aU, 0x7d9a729bae708a8cU, 0x9e88aa829b9f8665U, 0x93aaa395688f7791U,
  0x84958b98a07289a3U, 0xa271aa8d9193999cU, 0x9c7c849985817e81U, 0x7d909292a86e9888U,
  0xa389769e7ca68d91U, 0x9c81826fa18ca4abU, 0x938299879c897494U, 0x639aa4939093ab76U,
  0x8fa48890898e728aU, 0xae79ad9a7e9885a5U, 0xb08f7c9ca893838bU, 0x827fa586a6a49885U,
  0xa88fa595a58c9998U, 0x889f9b9a8e8a9687U, 0xb4aa727fa69c9189U, 0x95a37b9ca39ab79dU,
  0x96969887a09e8989U, 0x9981b89f898e8392U, 0x9795a49f7992a275U, 0x9295957f93a86e84U,
  0x8c9081839494778fU, 0x939d907ea47a8b94U, 0x8e88a48281a5a9beU, 0x9c87a198ce8a9a84U,
  0x6e7973759f94988cU, 0x81878db09ea4b1a2U, 0x9396ae816997949bU, 0x859d97c287ac8ab1U,
  0x8d9186939d997bbfU, 0x8a7fad909aa8a699U, 0xa17faf839e9e9692U, 0x898b8a7ea4ac9283U,
  0xbea8929c849ba28cU, 0x73af9d878e868f90U, 0x9e8385a59884c8a0U, 0x7d86a2a4a49188a1U,
  0x9e8fa69379a38f9fU, 0xa07f88a8b59e8981U, 0x859b9d9997a39985U, 0x999a80b5a3a89e89U,
  0x84a57980a8949f98U, 0x98a498b98e86aba0U, 0x8a9cbe969e78787aU, 0x9ea6927d7a9f93a4U,
  0xaf9ba38ca2a3927aU, 0x9c88889f8f898c77U, 0x9a8588a888899da2U, 0x8c92969c7e889187U,
  0x837ca48082a2828aU, 0x9b85b0979b9d9489U, 0xa59d8d8a9d87707bU, 0x9775a8999589928aU,
  0x898f9ea7a3a08f90U, 0x9c82a88694848d97U, 0x9789a29f9ea8a79fU, 0x959ea0a5848e8da5U,
  0x858f8b949c929b97U, 0x929a82987e9c8b88U, 0x9098828791858f7aU, 0x7f8e9b99967f9395U,
  0xa480948a928e96a5U, 0x9ea68ca28e8f8191U, 0x928f929e95a3ab8aU, 0x89a89a849399a5a0U,
  0x8a819b7c989c868eU, 0x89839aa19d819588U, 0x99888f96a692958fU, 0x9e7fa78e797388b1U,
  0x9a8682919091a7a0U, 0x8d9aa58f7ba59c8bU, 0x989290a69a7e9ea2U, 0xa78ca49f937fa090U,
  0x8f9fa49f8fa8a398U, 0xa28d958a9490a784U, 0x7b87939d869b8587U, 0x9fa97a9fa19d969cU,
  0x869f948d849e9697U, 0x7b99a38ca0789f8dU, 0x9b85829b8a9aa09bU, 0x85a1b090949fa68cU,
  0x91a0a49d899092a2U, 0x8c85a0a29baaa699U, 0x969c8a9c86a99e9dU, 0x818ba59798829e8aU,
  0x95898e8d7f7a94aaU, 0xa1a389a58594a293U, 0xa291848a899099a7U, 0x8d9388889592a696U,
  0x9f99a7978d8d828eU, 0x91a0a29d969f88a9U, 0x8aab9f9e9f8f86a3U, 0xab84a6a5aa9e8398U,
  0x8797b296958299a0U, 0x91978e98a596888cU, 0x8888988493988b8cU, 0xa09d959384859e96U,
  0x84948ea59a9b9da8U, 0x9d9090829c9d9188U, 0x8a9b94a29296968aU, 0xa58fad9590a592a0U,
  0x8d8ea089949595a1U, 0x929096a7a2a68f84U, 0x918295969f859296U, 0x887f98a29aa2a087U,
  0x889aa3868183a483U, 0xa49385a58799a59eU, 0x817f909d98988297U, 0x8c95978e9f899aa5U,
  0x9ea39f8d8f9e8585U, 0x80878f9aa58b8597U, 0x909d989b9294809eU, 0x9598889093818d8cU,
  0x9e8c978da2a1817fU, 0x93a69196839b9289U, 0x8f979299979ba695U, 0xa18b848ba69e9c8dU,
  0x95a195898ca6918fU, 0x858e908a8499919bU, 0x9f808b9ca29497a1U, 0x979784a382839989U,
  0x949d829aa1a68b8aU, 0x9097848e94a490a2U, 0x8397a2919b828881U, 0x9395808e86a1959aU,
  0x948c978c99838e82U, 0x828a9999879f9aa6U, 0x889ca48d8181a386U, 0xa0a68e959fa1a4a5U,
  0x89a38689978798a2U, 0x9590837f84958292U, 0x85a081a19b9d9a84U, 0x8d9aa2819d9390a4U,
  0xa38288a3a2a29e8dU, 0x979389a48a929396U, 0xa49a9c839e9498a2U, 0x9a8ca3a18c8da27fU,
  0x8596959196a5998fU, 0x9a9ca28590a0987fU, 0x8f80888f869684a1U, 0x978780968e83a19cU,
  0x90968c86a18b8ca1U, 0x838d909a90908ea4U, 0xa3959f9a8ca19da4U, 0x88858d8383a49583U,
  0xa8998d8284889c8bU, 0x96999c8d81858786U, 0x8489949e849a8e86U, 0x9581948282959c98U,
  0x809f84929985858bU, 0x83818b8e8e97a182U, 0x8da29497999e8b9fU, 0x9489a183969e8a80U,
  0x9d8f7ca985839985U, 0x98949394b077a182U, 0xa38f8392818c95a3U, 0x8a91b288897bb5a9U,
  0x907f8c8c969e9581U, 0x9fa69c81949cb4abU, 0x8f9c84769d898786U, 0x9b9b948d868b61b4U,
  0x9a7d9198a69ba2a1U, 0x85a2997c9b8e949eU, 0x9b938c8697a6a182U, 0x758a7f80949da9b1U,
  0xc7858d8398a09597U, 0x88a486a88895868fU, 0xb3908d867a8d9a87U, 0x9d9f849d958b8896U,
  0xa0938b8a9fa09183U, 0x749f9e68988a9e9cU, 0x8894af98a2ae9b97U, 0xab9d89819d72947aU,
  0x9f97a38a88b0a694U, 0x7da4c2aba4949794U, 0x708a88ac8681988eU, 0x9bac83b276aa91a5U,
  0x8e839779a39a9a93U, 0x929a91ac897e8086U, 0x88ae5b9e8b858db4U, 0x8c85a398928ca489U,
  0x878f967b877d7e8bU, 0x8b7690a59495867bU, 0x9fada8846ea09babU, 0x9dadb3909687a19cU,
  0xa38b82827b8da17cU, 0x8582968f9c80aa8fU, 0x95928c8f9c998d9cU, 0x8f8f9ba39c9fa598U,
  0x9170969c9a9085a7U, 0x7f95a2a9a88c869aU, 0x86a275a2989e86a6U, 0xa08a928a8b85af96U,
  0x709ead939689ab9bU, 0xbe8d8e878093988cU, 0xaaa79b85a079877eU, 0xa099837b7d969679U,
  0x97b5a18f84a79cbbU, 0x949a9d929388879bU, 0xb483a092a28c899dU, 0xa493abada48d8c91U,
  0x8fa37b768d82a287U, 0x889d968d94a89694U, 0xa685968b928a7d8bU, 0x9f8584918f7d9e9dU,
  0x8f8c80a08ba6968dU, 0xac93899f9c9a9da2U, 0x75987d99977b7895U, 0x9c8da2957ba79486U,
  0x8b8498948e9b918aU, 0x928c8c889e889096U, 0x9a9295a5858d7c88U, 0x9a89929a8e98998dU,
  0x9ba6949c7c97af8bU, 0x95a78daaa5a69ea8U, 0x968999a095a180a4U, 0x7aa09294a682aea5U,
  0x94959296858ba191U, 0xa493a69e817fa27dU, 0x90898da9978f93a0U, 0x8d8296aa89ac9c8cU,
  0xa090938b9e7e7c98U, 0x85a2a3829590ab84U, 0xa389ab96a6958f8aU, 0xa18e9187a4a3938bU,
  0x7e837a85989192b6U, 0xa09d8491a0a7b28eU, 0xa48fa9ab8ba58e96U, 0x9585899c82d88493U,
  0x9c988aa5979380b5U, 0x9b9296969b8ca490U, 0xaa959a9a8fa78888U, 0x887ba4968eb2a779U,
  0x9692afa294b192a9U, 0x8ca59eaa7d8d847fU, 0xab8f99b28484a480U, 0x9f94a794af9bada0U,
  0x9ca581a38898898fU, 0x8e8da9999da4b28fU, 0x8d9d939594a8a8a4U, 0x86a5829a9c908a8cU,
  0x86a88da5a08a8786U, 0x978da7b99594a39fU, 0xa68a9d8e9da19b84U, 0x9cb292969a908ca4U,
  0x91a096a2898f919bU, 0xa79c93a478838f95U, 0x9da89cb1ab9994a2U, 0xa7999e98a5819e94U,
  0xa896a19f9aab8b9cU, 0x97949f8e87859383U, 0x93a79a9e93a1827eU, 0x95938ea9a3969e88U,
  0x96a694a498967f75U, 0xa5938395868ca38eU, 0x878483a792949a93U, 0x90a0a08b9692aa81U,
  0x8ca0928ba38b8f9aU, 0x909e85828aa68a8cU, 0x8da99980989b7e84U, 0xab819f7a8d8aa283U,
  0x919baa927f999ba9U, 0x959b86a591a0a68cU, 0x8ca0949883989286U, 0x86a6869ba89daa95U,
  0x81967d869f81948cU, 0x8e96a5809fa68181U, 0x9697a296829a988bU, 0x896e9e8f9caa8d92U,
  0x817e8ba293a7788fU, 0x7fa086896083958aU, 0x929792a7a8867491U, 0x9f978e888f7d9796U,
  0x978aa2a3ac958aa3U, 0x5d8b95848e8c7c8cU, 0x849f9797af979795U, 0x88aa99837c988baaU,
  0x8e909ca47fa1aba5U, 0x94a6a593888e9f97U, 0x8d858e9c93848095U, 0x9a9c889a9f8f9d8aU,
  0xa49fa2918e9c97a6U, 0xa188908e998f8395U, 0x9a999e9991a284a4U, 0x799bb0ab6aa398a4U,
  0xa09e8a908f7c8e9cU, 0x8f8f8c96ab99a28bU, 0x9fa77986a37f8d9fU, 0xa3a8a89794979e9bU,
  0x9997879b8e8693a8U, 0xa6a28c8198ad979eU, 0x8c888c939b809499U, 0x9da99f898f729f9bU,
  0x94908d8d996b8495U, 0xa79d84939788839cU, 0x92aba49ba3847f9eU, 0x9aa5819679a98f84U,
  0xa1adac928ea68d93U, 0x90959d93757aa7a0U, 0xa78dad9f8c7c8487U, 0x8a77989584a19f94U,
  0x9693a6a18781877bU, 0xa482889eab82a09fU, 0xaba08385a89c6d83U, 0x92759ca38a7d9691U,
  0x889d93aba19b9a82U, 0x8f9c9888a2869b89U, 0x958f839da49284a4U, 0x6875a79179a28db2U,
  0x98909b8e94958269U, 0x987e8586a7869372U, 0xac7f8f8598a1898bU, 0x9f94928778a48c84U,
  0xa080988a97b0989fU, 0x828b8797a3a993aaU, 0x8a8e5f969f818285U, 0x888d9a929a938595U,
  0x9c80a585927e8c99U, 0x9b67a4a69da08f82U, 0xa095999582937588U, 0x8e8b95a34ec66c88U,
  0x958fa58c94665fa4U, 0x84859d9aa8a09a9dU, 0x8c8e989b9da6a699U, 0x5aac848a93816e7dU,
  0x8c8e91a1a78a798fU, 0x9796958f8aaa8c8fU, 0xa4a3a0a76476928aU, 0x948c7f9f899288b8U,
  0x9d8faa818a818382U, 0x92a799a5a0ac9fabU, 0x9f8b9c7c719cac86U, 0xa1958f9599a58a91U,
  0xab95948c96a28d87U, 0x6a88aaae7181829eU, 0x8baa98a49b7b9499U, 0x787a8792a68e89a0U,
  0xa797618a9694a0a5U, 0xa188a88f9194a28cU, 0x958e839587a185a0U, 0xa496909aa592978bU,
  0x9e98957b7e868985U, 0x889e9387a470af9aU, 0xa07693a0a270818dU, 0x959988a2977e7395U,
  0xa7ac998993a59c8eU, 0x99aca49076a4af85U, 0x89ac8b969695888dU, 0x8b9d7ba375799597U,
  0x9d8b8ca0a7828266U, 0xa16c90a59d91a19eU, 0x86958d8da2a25d76U, 0x9a4b92a58f969a80U,
  0x96818f8d7ca1a0aaU, 0x8a8c968a869887a4U, 0x85889ba6a0848390U, 0x828b938c9b9193a2U,
  0x92a79b9d7c9f7f90U, 0x839b8e91979b9b7fU, 0xa28186ac81968788U, 0x819f999f84a58d96U,
  0x95a88e8d868b8987U, 0x9e93a2809aa29589U, 0x958485a07c8a9d91U, 0x7da0a7998d99a983U,
  0x8f96868b9b7c8c83U, 0xa0957d9c859a8e7fU, 0x85939b8f819d8b7fU, 0xa9838d8e91819896U,
  0x7e889d898c9d9f83U, 0x9585968b8b85879dU, 0x7a898383968b7f8dU, 0x999cae9ca2998d95U,
  0x8a8395ac837e9b98U, 0xa67f809f8d969b8aU, 0x89849090a292888aU, 0x9f8c9c82a3938a99U,
  0xa1939f829298a480U, 0xa19c9e898c999d86U, 0x878e86868185819dU, 0x95a293a98d90918dU,
  0x8687a2909f7d9487U, 0xa39196907b8e8f8aU, 0x9ca5837d9a80949cU, 0x9999987d8d838c8aU,
  0x977e989e9ea09985U, 0x8c89a0937c858aacU, 0x8f8a8e8681909f87U, 0x7c948d9481779493U,
  0x8083a0898f8e8494U, 0x8f989b7aa085a39cU, 0x8093a48589908b98U, 0x8688948f7ea29393U,
  0x9783a07d7fa0838fU, 0x847da1868f838e8eU, 0xa4a88f8f909c9c9aU, 0x918a90929598a69aU,
  0xa0959686a085928eU, 0x93929b958d95819cU, 0x7d859f9788909999U, 0x8c98899682899296U,
  0x8887958789848191U, 0x829ea38a848c8c89U, 0x948786928d9a9587U, 0x949da0988f898c9eU,
  0x958b8aa6979b8f9dU, 0x9a9f978a9d968685U, 0x9586928a90a0a181U, 0x8a9e99988399978bU,
  0x908ea68d94889e84U, 0xa4829e9982a48181U, 0x9f929c9991858887U, 0x9081889e8a989589U,
  0x93a4a2a08a9a958fU, 0x94a6929a8f979782U, 0x858a9e9f829ea29dU, 0x849395a787a58ca1U,
  0x819494888494959cU, 0x818397a594969f8aU, 0x87899798898b8e89U, 0x9f86958aa4908d9fU,
  0x988d9d8e8b8691a0U, 0x81a59a848c8d8181U, 0x9792a4a083899e9aU, 0x919884888f928d8dU,
  0x889390a595828399U, 0x899da1a29c9ea08bU, 0x879581a2968192a6U, 0x849d82838c95878aU,
  0xa5a0899181879f9eU, 0x979d8d92908c8a8aU, 0x889d84898c86869fU, 0x86948a8a85a19084U,
  0x899a878f8c80a38fU, 0x82888d949da38296U, 0x90808999859f9682U, 0x8396919c82888f9dU,
  0x838d94818a99959eU, 0x8384a69b98898d9dU, 0x7f9b8e9a89949e8cU, 0x989a9a98888c9089U,
  0x99a588888d979989U, 0x998c8288a4979281U, 0xa2a19d8c8081a6a5U, 0x9096a196869494a2U,
  0x9f809e8a87869ba3U, 0x8787919597958796U, 0x888ca5909da08195U, 0x80a48b87878e93a2U,
  0x83a28f83a6a3a09fU, 0x839c9c8e92a39d88U, 0x95a09397a0858683U, 0x8f969b86a285828cU,
  0x819f70909b8a778bU, 0x9e8d948185987a89U, 0x83a67da69c6a8b8fU, 0x996e8f9081609194U,
  0xa59b90978b946276U, 0x79a2aa7671907e96U, 0x7d929cbc9888929aU, 0xaba78e6c999e9e70U,
  0x858ca3a786788c87U, 0x8c83917d7381b1a0U, 0x93648d7779ab7f81U, 0x80a08396a282b57bU,
  0xa0977a82687077a5U, 0x85ad9c7fae8a859bU, 0xa48b72849a818488U, 0x9b8f9a8e8aa78d97U,
  0x8d78a6887e7e879bU, 0xa779a68f82a86ba2U, 0x93b08da07e9c869cU, 0x8aa2a88c89a4825eU,
  0x6d817da495898e8bU, 0xa18d91aa72a27f95U, 0xaaa8928f8e8e7a8fU, 0x7b82965e8b94b395U,
  0xb39099838fa38897U, 0x8b7d97688785769fU, 0xa390889196809d8cU, 0x8d8379a1919398b3U,
  0x9ba09091909e72a8U, 0x999a9d7f7d8f8b9dU, 0x93a395848f93928bU, 0xa996777094748d9cU,
  0x8b878b78a4a96f8dU, 0xa08e8b9e80a17780U, 0x9d9f9f959fa38b83U, 0x9983979d9d7b8186U,
  0x928f9b86979d9876U, 0x848b978c7b779c82U, 0x8f579c665a977f7fU, 0x9386947d87a39e79U,
  0x958e757d90a986a8U, 0x8b778f818899a98fU, 0x83aa80a4988d9a88U, 0x5694aaad857b9083U,
  0x9d9b809d8f9b8087U, 0x8da09696a3978f8cU, 0x927ca490baa1a788U, 0x8a7c889a8b7f8894U,
  0xa49f8c9ba683aa96U, 0x839382998e9f7f72U, 0x94a79da58587a895U, 0x8e888e9b93859398U,
  0x888d869994999990U, 0x9b9c7f9a86a18ca5U, 0x8e8b879792888b92U, 0x9b908e887da597a5U,
  0x9996a393a08f9183U, 0x789589908a889478U, 0x999482a196a08096U, 0x8292a49489a28590U,
  0xa9929886a3ae9a83U, 0x94a6a185ac9f9ba2U, 0x9e8a949a8f96a3a5U, 0x8885a899a6a59c8fU,
  0x97998380989480a1U, 0xa29b9388858d9d92U, 0x98a586a3a382a2a4U, 0x8e82a5a09f8e8e8dU,
  0x96809e87979d8883U, 0x8aa696819981a19eU, 0x9ca6ae9ba8a69b96U, 0x80a1aa899f9ea297U,
  0x84908c8e8c958488U, 0xa38f80a687a3a5a4U, 0x8c8da99ba1a6a497U, 0x947fa598a79b9888U,
  0x8e927d969a859caaU, 0x9b92a58b91889b7dU, 0xa78f90908d9f9da0U, 0x8a9096848d908c92U,
  0x898ba4958c8e8fa5U, 0x8a90ad8f94969e9fU, 0x88828aa08c8395a6U, 0xa1a283908b85a1a6U,
  0xa0949f879f9c7e96U, 0x919398a195a0a88bU, 0x928898869b8ba393U, 0x919b8e98a78f8aa3U,
  0x868ea09f928986a1U, 0x9b959aa99a819b9bU, 0x8491a096938fa09dU, 0xa1998184a28ba09bU,
  0x8f9baa91a3a278a3U, 0xa3a28f829fa6aa97U, 0x889384aa85a3989aU, 0x859ca78190959d9dU,
  0xa999a7a89d9c859dU, 0x9f92a6a99ca1a987U, 0x9e9a9ca88e8b829eU, 0x8aa3879f8aa89083U,
  0x8da9aa8a8697ad8eU, 0x99888391a48e8e8aU, 0x8b928398829aaa99U, 0xa6a784928ca399a5U,
  0x9199a38f878b8e90U, 0x9e9f98aa869c9da1U, 0x9b9f9c8a8e9c897dU, 0x809da299977e7aaaU,
  0x929f82a3a8a89c9dU, 0x8892828299a398afU, 0xa397879b8f8ea892U, 0x8b9a859098879eb0U,
  0xb985aa87a98e9f84U, 0x9290a9a2958eb387U, 0x96a780867f8d8f98U, 0x9d8b969a766fa88dU,
  0x8d80a4a2a79c91a4U, 0x849b97919ba7a4a0U, 0xa0959999a08f95a1U, 0x879e967aa4798293U,
  0x9ea69ca58ca6a19aU, 0x85a397849f97a79bU, 0x9491878d8f9b929aU, 0xa28790a69ca59494U,
  0x978999858e8a7d9dU, 0x8b848d90a67ba082U, 0x998586ad9fa287a0U, 0xa09e9e9790929480U,
  0x919a8690998f9c8aU, 0x8e9295a9839b9b80U, 0x7aa7b18a8e8d86aaU, 0x92aaae8f8d9183a4U,
  0x92988286a29d9190U, 0x9690aa8c9b8087a4U, 0x968c95a58aa68b8aU, 0xa089a3858d8a8d90U,
  0x989090a5978ba084U, 0x9a988aa3a4a185a0U, 0x97a3869fab9580a4U, 0x908fa68894829b8dU,
  0x99a1919596868d7eU, 0x9fa7819b868d9ca8U, 0xa3a0888c9c8d93a1U, 0x8e8e8d8c8c94908aU,
  0x97a195949c988f9dU, 0xa78891848b97a492U, 0xa6839f8d96a0989aU, 0xa697aa9d948a859cU,
  0x879a93949a8c9c8bU, 0x967c85829e8a9e9fU, 0xa4867e9d5f6d858dU, 0x9ca9a38c958a9a8cU,
  0xa8a4ad677b989193U, 0x7e94c675999caf67U, 0x9c958caa9aa9bda9U, 0x829e89a7ab848ca2U,
  0xa99a789497a5afb2U, 0x90a092a4915c7a75U, 0x907c8b777d8285b1U, 0x87908a8f7a99a587U,
  0x81849c979b66a09fU, 0x6f95a4917f968298U, 0x8b51878387988993U, 0xb1828c969f958476U,
  0x7ba3a09783a36a92U, 0x4b9d8faba395a6adU, 0xa489838894a27279U, 0x9d8c896c8fa69e8fU,
  0xa5a96cac7aaaa89aU, 0xa89081877c949695U, 0xa98d919381a29178U, 0x5a919672928cae88U,
  0x8298aaa58c969e70U, 0xac90a1767d878387U, 0x88a0a4b495967c8bU, 0x9593a9a78c5b8967U,
  0xa598538ca1968d75U, 0x8687869a927f9a8eU, 0x927880977e8ca686U, 0x899197a6b29ba09dU,
  0x8d7e706c8f8da88eU, 0x956e7ca0999786adU, 0x96989e708dac8a9fU, 0x9e8c9e9e86a8b094U,
  0xa87facaaa37e9a6dU, 0xa07296a28a8ca8aaU, 0xa878b16f904cad9eU, 0x7386a3a380869281U,
  0x8a8c96869ca28f85U, 0x9c8c78827c618597U, 0x78899aa09ca6bd8bU, 0x7b7797a1ac8aa499U,
  0x867595825a818298U, 0x979e8b95858e768fU, 0x999c818a9797a2afU, 0x8c998d75728b8797U,
  0x9e9ca4b5a68a8199U, 0x8595888aa0899499U, 0x636d73937f8dae87U, 0x85947a9298959893U,
  0xaaa0808d959d9c96U, 0x8084ae9f69977b6aU, 0x818977a9a3888f8fU, 0x798f8296797a8b90U,
  0xad989e9fa3927c70U, 0x9276928c8b9d9399U, 0x7a899683a09e84a9U, 0x8279a8848a998da3U,
  0x93aba174a475a976U, 0x95857691aa9a8875U, 0x9194769ba99672a7U, 0xa1849767817adb8aU,
  0x64967d887b9fa69dU, 0x9b4fa08c7c97a089U, 0x9b997d7190b5b19aU, 0xa1a58c909f9c9697U,
  0xa0af908ca38f6893U, 0x88827a9eb367938aU, 0x94887aa17ea7647aU, 0x8e9267a9c3837870U,
  0x6396758a966c7ca7U, 0x9d98959bac99b593U, 0x95a29d939ca09980U, 0x98aca4baa385697bU,
  0x7ea78294738c9da8U, 0x93ad8d8c95ba879fU, 0x939a8d7e9a63a26fU, 0xa88070a2928c7f94U,
  0x8e908d86ad9c8886U, 0xa79a6b77ae698aa8U, 0x9ba5888a9a8f8f67U, 0x72836c9489aaa1a2U,
  0x926c9f868476a5a0U, 0x788d61648791698dU, 0xaf9e6b708464a7a5U, 0xac897eaf829c749bU,
  0x897999aa8e967686U, 0xa37e92ae6689948fU, 0x8b77819b9f8f9087U, 0x618ea38b8ba09d61U,
  0x898d978d9864927dU, 0x7dac9f828194689cU, 0x72988a958a957e87U, 0x9ba09486969a8c83U,
  0xa19f8ead6498867fU, 0xa0666691808d9698U, 0x8c7d959deda1918aU, 0x738f7d978a96687eU,
  0xb49c898488937e8aU, 0x8091ab89979c907fU, 0x8e8d999ba594898bU, 0x9199a188989b9e7dU,
  0x79838d8a9aa29e8aU, 0x8984968e889482a7U, 0x8e8f9d8f8b948e9eU, 0x9d86a3859784a797U,
  0x8f8998a38a7c94adU, 0xa489a3a79ca69190U, 0x8ca89378a4828b8dU, 0xa58f9985969b968cU,
  0x9a8d999a9a837d9fU, 0x8897a58181a18a88U, 0xa59f92a78d939993U, 0x9898929d7c9e868cU,
  0x8884888c8f87939dU, 0x9a949f7b928c957bU, 0x7f9ca18e9aa18395U, 0x9aa07aa497879584U,
  0x8da19b8783a18ca4U, 0x8f8c8489a2978693U, 0x9fa38ea0a085888aU, 0xa78aa2997c94a59bU,
  0x8aa48c87909d96b4U, 0x8a9ca68b7f928683U, 0x9e909cab998d89a3U, 0x9886708192baa181U,
  0x8c7d868f94809b8dU, 0x9a917ea48f918799U, 0x959a937ea7879492U, 0x8b8b97a08c7c918eU,
  0xaf8b95a0999ea68fU, 0xa88b8b93ad9b9290U, 0x9e91a39a8ba1877cU, 0xa7a890979e9a9ca3U,
  0x98a0a285999e8b98U, 0x9d9c92829098a698U, 0x76838e88958d9498U, 0x858c8b8781888889U,
  0xa69587a085818298U, 0x8e9e88859293919aU, 0x80958d87a38c6591U, 0x958c90a08fa7857dU,
  0x9a929d92968a969aU, 0x9193a598a89d94a5U, 0x86828d8c9488998fU, 0x8684928e99a79b93U,
  0x7982948185b18287U, 0x7e9d8b887e9a8696U, 0x828c918080868598U, 0x93939b9799999d82U,
  0x9ca9a385988d8e8aU, 0x809b8c9c92a18e83U, 0x91a3888c87a2948bU, 0xa28187988c8b89a4U,
  0x8694a28c9aad849fU, 0x9ca981959c9680acU, 0x89927e7d96a183a8U, 0x9aa38e95899a8c7bU,
  0xa9728d95a178927bU, 0x9cabab9b927f86a6U, 0x8d9e9ba37a9c968aU, 0x93a98d8889929998U,
  0xb47fa872908f8f9aU, 0xa3889c8ea48ba9a0U, 0x8c9b7e79899b8da0U, 0x8691af8d817c8c95U,
  0x849e9c8f88979e8cU, 0xa67e85aa838a9187U, 0xa396a9af877b8184U, 0x8da2a17481aa8b98U,
  0x9c8e867e86868b7aU, 0x8f7e8b83bd899a94U, 0x9ea4968a8e829c93U, 0x94898a8c8f9c89a2U,
  0x929698b384998c8bU, 0x828e8e979bbc7c9aU, 0xa7aaa78da593a2aaU, 0x788bac9896a18678U,
  0xa28b908a988f869dU, 0x7f9f9a9689859c92U, 0xad8ea8889393908fU, 0x8e9a8a758a76869dU,
  0xa592859193879385U, 0x84a19fa698a09689U, 0x80a2af8494908082U, 0x7c989775a6968f85U,
  0xa382998c9da39792U, 0x8f9581a588977f7fU, 0x9d958a9f94ae7497U, 0x8a9098a38cab8f93U,
  0x8c92888f829a9b97U, 0xa8969a9f988e9c8eU, 0xa594799f9e958f9cU, 0x749688a08183a78bU,
  0x9e76957b9c969191U, 0x88a7939daa8b81a9U, 0xae8f9f937884a299U, 0x998e979d86a3968fU,
  0x88a49898907884a8U, 0x8e8d9b987f939e8aU, 0xa18eb6a6999888a4U, 0x8e90828f9e93859aU,
  0x999daca880a78e8fU, 0xae9a87b08687a9a6U, 0xa4948f998477778cU, 0xa087a881a38ca78aU,
  0xa190847f80989593U, 0x92a1ae8f919c6f92U, 0x998c818a8c8c978fU, 0xa0a9a48ba788938aU,
  0x94829f9e93ac839aU, 0xa591a28aa88f98b0U, 0xa083a9a084847d8cU, 0x7ea79b93869bb48dU,
  0x9c9d95887a83999cU, 0xa179a886988b8a7eU, 0x8c8e98847d81968dU, 0x7fa0a2a57dad9ea5U,
  0x9a8c958a8f949891U, 0x9ca2a27c9b939a9eU, 0x998c949099aaa799U, 0x9c9b769a8e9e89a9U,
  0x8f8c80a4ac8b929cU, 0x9488a09b9a9eaba3U, 0x9f9a9476a3859ba3U, 0xa36d9882869cab93U,
  0x9690939572989fb8U, 0x999298a6a594a58eU, 0x83a5968e978b9091U, 0x9d81b293899f888aU,
  0x86a79583a39e9a8fU, 0x8da58b93a695a19dU, 0x8d9f86959fb0ae7fU, 0x9b99a2977782a89aU,
  0x8f7e99958591869dU, 0x8a8f9a9a9d9ab081U, 0x86889e9e958798a5U, 0x8674998a9a9ea5acU,
  0x9a8da5b4a1919791U, 0x9ea09699a1a6b097U, 0x7a9796909eada6a2U, 0xaaa981a485a7a8aaU,
  0x8f888e869d947c93U, 0xa3a8a09c8e968f94U, 0x9db2a5a09e7c8793U, 0xa498a481968f9989U,
  0xa69b92808cb18dadU, 0x9486978ca387a69fU, 0x7c869ba09787ab92U, 0xa1ac888c8c98a294U,
  0x8c8dad6f9eb29aa0U, 0x6f92a3867d9b9277U, 0x8cad939bb4af9a9aU, 0xbb7986bc788ea380U,
  0x7f7978968d6f7183U, 0xae704a8e638b8796U, 0x868b898298af8a61U, 0xa15a7f7476898f73U,
  0x529d74a98d7f927bU, 0xa8908199a59d7883U, 0x78b9775481749a78U, 0x979b85a7658b8182U,
  0x786ab58d96868699U, 0x6d97947ca9869e91U, 0x77809f84967b6c74U, 0x978790806083a48bU,
  0x82828594759e9d9eU, 0xa987a9ba609393a3U, 0xaa788c8a79697484U, 0x7d85a87ba8b47188U,
  0x9d82a47989818590U, 0x92a27882799f6a92U, 0x92b0947962ac8dabU, 0x8385858ca6aa9f8bU,
  0x768291697087a3adU, 0x6e7790878d95a16dU, 0x9e91aa88608d879bU, 0x6889906b998f92abU,
  0x949b879e73aa849eU, 0x968e829193b35b90U, 0x7f8265829c3d80c0U, 0x8883c292909e5c78U,
  0xac938f867c5687a2U, 0x9893889388a4aa75U, 0x8da37c8d889f9964U, 0x89849faf8f9b898dU,
  0x898e769da18a7c8bU, 0xa2767e85ba5d7381U, 0x637697a28da07772U, 0xa2985c959db27ab1U,
  0xa8609bb4a08b7488U, 0x6273a1977f76758aU, 0x8f727198a0a5b47aU, 0x937c9aa99e956d76U,
  0x917c9e678da39887U, 0xa9889588aa80ac8eU, 0x74575282558ea164U, 0x9db66992778f7791U,
  0x6f8097a7ad9e7899U, 0x8e77928d93858388U, 0xa4985f6ea5836183U, 0x9a969e92938e9d85U,
  0xa08599a98b79a481U, 0x63ab9b719882a487U, 0x9697868b837e8aa0U, 0x60878c8b808d86a1U,
  0x779d9a929d88a79dU, 0x8c7b8170a99f9063U, 0xa08c8e9386a68fa1U, 0x7c90728566a59284U,
  0xa584a07d82a27aa4U, 0x838489ada99fa89aU, 0x5ea1607f906a8e83U, 0x7e7b878a918a5c90U,
  0x8ea4a684969ba67fU, 0xa875947599ad88aaU, 0xa78698a88d8c8599U, 0x959b978368867a8aU,
  0x8795a296a2818b98U, 0x8b998c92a6808e7aU, 0x94a8859e9e9e768dU, 0x43a1748068906aa2U,
  0x9a908a95ac8f907fU, 0x839a8c7790946f98U, 0x8d94829f8b84a382U, 0x927c8c987c61a5a6U,
  0x8c9f71759a7d9152U, 0xa19f7eac98a0a2a7U, 0x8897799a889fa983U, 0xad897f89a0a5799aU,
  0x7d97969b8488a2aeU, 0x977a94979393938aU, 0x80aa87aba0729893U, 0x828b896ba59e9ca9U,
  0x8aa3717fab7c9a9dU, 0x898da995748e9389U, 0xa1839e7378a688afU, 0x93729798a28e9b9bU,
  0x95807a957596ad7fU, 0x87a4a8648966a0a8U, 0x86796fa88695808fU, 0x98a0b0ab8f9d8a82U,
  0x8396aa86a9827e8eU, 0x9ca29e949b8b9990U, 0x87a8a6919a857e8fU, 0x7f97a29f668ba29fU,
  0x948ab18391688d70U, 0x966d9696899b9689U, 0x8ca88993a1a88998U, 0xa87195969e87a178U,
  0xa094937d9899828eU, 0x9d9c9a898984978aU, 0xa3928c96a47d949aU, 0x9b968c89a091a297U,
  0x9d9aa292a59b838aU, 0x9f879d89a39b9a91U, 0x9886868f8f9f94a7U, 0x989583879fa59f9dU,
  0x9095b495a191918aU, 0x8d89a282a694aa7dU, 0x7e83a99b8f96908eU, 0x98a2978b98859c95U,
  0x87a0a087938b909cU, 0x8884a298858fa29aU, 0x8f8895849a81b292U, 0xa49097a2a9afa48aU,
  0x9ba89c9ea98a949eU, 0xa3a08489b0909aabU, 0x89a87e92a3a29586U, 0x8a98a2898daf878bU,
  0x8385959083988189U, 0xb08d84b4768c8dacU, 0xb0a5aca08c9fa088U, 0x9d82958b91839ca0U,
  0xa08a8f988b8295a0U, 0x878888a0999f9598U, 0x9088aa879699ae70U, 0xa58574a28e9895a1U,
  0x818588a09fa09597U, 0x9dada1978a8584acU, 0xa77d829e8d7f7f79U, 0x8a898a889e9eada1U,
  0x9a8f8981a8b581a3U, 0x94a5817c849b9693U, 0x8e888b7b9e88ad96U, 0x839189a995a17b84U,
  0xa68f8da29aa696a0U, 0xa87ba596937a8b9eU, 0x9794a4978c8ea19bU, 0x9a8c968e968f8d94U,
  0x88a66e8ca5878c93U, 0x9095a193a0a08f9dU, 0x9e93849a8f8897a1U, 0x8b8dac9fa88c8b8cU,
  0x9da0a3998e919481U, 0x9fa687a4a1a697a2U, 0x9c8d868ea5ae91a1U, 0x939b8b7d90a1908fU,
  0x8b8ba39699879fa9U, 0x93a999979da29090U, 0xa38a8891868c888aU, 0xa49fa0a2a48c87a9U,
  0x968794a8909899a1U, 0x8f8e9f9a99a4878fU, 0x7ba29087a1959587U, 0xad8e88a98b939ca7U,
  0x9f8aa37f92a19f8eU, 0x897da69c92918a9bU, 0x9e837c92a3989998U, 0x959a95829699a396U,
  0xa9a09f9b9592928cU, 0x9fa5949ca0a4a6a6U, 0xb29789969daa938eU, 0x8e9a95aa8c818b9fU,
  0xa39b808f8e948ba4U, 0x8c7ca5869794908aU, 0x85a7909488a1a197U, 0x7b9a82947a988c86U,
  0x8285a9a3a0858d87U, 0x8984a99f9e808c7fU, 0xa19ba8838fb1ac9cU, 0x949fa686b59a809bU,
  0x9082a4a7a9978c82U, 0x93a489aa9191a993U, 0x9e8c947d9b8c8fa7U, 0x837da59c8b7f83a1U,
  0xa49f8eab9d818b9eU, 0x8b8dab8e98899084U, 0x87a6a0a4949da295U, 0xa182959583b09889U,
  0x9c9695a37f8c919eU, 0x988e939484a29991U, 0x8f8c99909289a882U, 0xa595a7aba6a1a896U,
  0x9b7d8fa49f9880acU, 0xa79aa19492a39595U, 0x8787a796809699a5U, 0x9697849b949b86abU,
  0x9c96a6a9ab899c95U, 0x8e92949daa7e89adU, 0xa3869c9ca0809194U, 0x96b182839b888a9aU,
  0xa590a7978f8e858fU, 0xab9a82859b979292U, 0x9b86a2a491a98fb3U, 0x9e9ca79b9290a1a6U,
  0xa48d9b9ca9a48795U, 0x9b90a89f9897998dU, 0x7a8f7f9094997d9aU, 0x979194989b9b9091U,
  0xa4a5919494a79ea5U, 0x9890968c8d86a798U, 0xa5a190a3a885948aU, 0xa1ab97909ea18c8bU,
  0xaa8f9a9da3788993U, 0x8e82a49fa286927eU, 0x8699a3aa87a69394U, 0xaeb28b9c839c8897U,
  0x85a48faa8ca38084U, 0x8b97ab9c93919484U, 0x82a0a28d7c988e84U, 0x8e98a5909a9f8b98U,
  0x81a49f90848c8b9dU, 0x8c909e9d9f87a392U, 0xa6a1aaa486959089U, 0x9882898a89929381U,
  0x9c80a39b989f988aU, 0xb08d8f9386889d9fU, 0x889d96979c9ea791U, 0x8f8e898d8196a9a2U,
  0x9c9c98a1928e8b7fU, 0xa683969992868da3U, 0x92ada2838a9491a4U, 0x918da888a6838c95U,
  0x9fa79ba695a38583U, 0xa09ea07e86a88987U, 0x9f9fa5859d878d98U, 0x9c967ca7929a89a1U,
  0x9c89859b81928687U, 0xa096a280858c84a8U, 0xa880869ca78c8c99U, 0xa48b8a9c8d899b87U,
  0x8f8099a79faf96a6U, 0x938f979099a39992U, 0xa389969289a3a0a8U, 0x9ba28690828e8f8aU,
  0x8b8791869291a39bU, 0x9978ab86989a9e86U, 0x868aa7888da49da9U, 0x8b9ba39d9e9f899aU,
  0x868f889e938d9d95U, 0x898d948f86a68e8bU, 0x90879f908f899f8bU, 0x87a19cafa1898e85U,
  0x8aa4848b8c88888bU, 0x8d9784898b8b8494U, 0x839d938ba38eac94U, 0x9d94768a80818b9bU,
  0x918da7909ba38d9dU, 0xa5a5969d8f81829bU, 0x967f948a9c869f97U, 0x8e8ba48a969f806dU,
  0x9f868e978da39795U, 0x9a779e9187826f93U, 0x9c99a287968f9c8dU, 0x89a297858098a87dU,
  0x6b9590a497889aafU, 0xa081ad9e92a19c96U, 0x988b889f9d7fa4a4U, 0xa68a9399a3a08a86U,
  0x89a78c9199889ab2U, 0x99a685a39786817aU, 0xa3a88290a58ea095U, 0xaa5a8ca2869baaa3U,
  0x939a797d8b8c8c9dU, 0x87a19a8491919c79U, 0x97a29c9597828793U, 0x838d7a90b0768d9cU,
  0x9293a3a39b8c88a7U, 0x9d8b97a68d8f878eU, 0x8f86a69f9aa1737aU, 0xac7a9c8f9b86a39eU,
  0xa685a070748a8eb0U, 0x928a8b77947b6990U, 0x83928a989e779d8bU, 0x8f9a7a8d89c38775U,
  0x85a3907ba198ae88U, 0x9c7c91a78795879bU, 0x8d92917ca88c888bU, 0x87a67e8181987cabU,
  0xbd868c87aa88a086U, 0x9788a9829ba19b99U, 0x7a718b768c939382U, 0x8b9a8b7f8e9a9ba2U,
  0x68997f7a9b9c8ca3U, 0x9f9973999996a4a9U, 0x77787c85a698a086U, 0x929a998fa093958aU,
  0x92a18d9ba39f7d78U, 0x929f85a2ac957f83U, 0xa2956da4816e5f82U, 0x9989a39da7876f97U,
  0x9995ac948d9fa489U, 0x84898aae8d848688U, 0x9f6c8da58f987d8bU, 0xab9574908fa89980U,
  0x796477898087798aU, 0x8e9ba28365a07d82U, 0x8c94ac897ca06f90U, 0x8a8c8689838c9776U,
  0x8c818b977f89a3a4U, 0xa69e95899092979eU, 0x91a59099809f84a2U, 0x8c8b809386999f85U,
  0x999686909f987577U, 0x9592a3a09887a28dU, 0x9f9399a49992a2a0U, 0x95a08b7f859d6aabU,
  0x999f9783a77fa393U, 0x9f938890a595a2a3U, 0x9fae9d90a2a09094U, 0x7797a7989b8da88eU,
  0xa79f81a28ba28583U, 0x81908ea19391907bU, 0x9899929e9ba8a393U, 0x8f9e8ba6848a9991U,
  0xa98a8d90a38a9c9cU, 0x939686749092828aU, 0x9497998f89af99a5U, 0xa59589928d798893U,
  0x8a928a9d909d9398U, 0x9e95a5a6a4889485U, 0x878f89838b989c8bU, 0xa69ca5967b879ba3U,
  0x96829d6dae7b80a1U, 0x8b959e86928f8791U, 0x86938a9686988eaeU, 0xa17a7ea2808f8882U,
  0x79979794819a928bU, 0xa291af8c8885ab80U, 0xa1a292a494869b93U, 0x8c9da58ba599a880U,
  0xa3919895989b8d82U, 0x9ba499ab7688a0a5U, 0xaa9778ac9b9c7c96U, 0x8f8d9f8e9d938499U,
  0x9688809e8890a6a8U, 0x96948996899c8481U, 0x7d8f8a9d889286a4U, 0x93998ea5857b7c9dU,
  0x96a3b386898d989bU, 0x9f8e8aa187a3b08fU, 0xaf8da37f86878aa1U, 0x88a29b888aa28c80U,
  0x79a084a39a8bae88U, 0x919ba78e9e8690a2U, 0x95a0989f9ea091a0U, 0x86819981a59fa88aU,
  0x86a27f7f829d9d87U, 0x999992858b8c84a1U, 0x839fa3a49b848a8eU, 0x9592978a97a79a88U,
  0x978fa47a8aa694a3U, 0x808c8b92a488748dU, 0xaa83a8998a95908dU, 0x9294a67f97969777U,
  0x9aa59290967e9ea8U, 0x8199898aa091ad8dU, 0x8a8ba2809da58a97U, 0x9372898c88a59f92U,
  0x9e919590967e8b9cU, 0x8a7c87828c9f8384U, 0x7b9f92a7828e988dU, 0x947692857e8d8e9aU,
  0xa394a49da5a77fa8U, 0x84929790a3979d85U, 0x92998ca090a1a4a9U, 0x95898b92947ea68aU,
  0x86a38a94a0a78ba3U, 0x8f969fa8948a8597U, 0x8c9c818b8b90a27eU, 0x958c918b9781a78eU,
  0x8e919776909b86afU, 0x8b95b18b937e718fU, 0x9fab9198997fa286U, 0xa38c759c9e8f8493U,
  0x8c8c9e8697999e88U, 0xa0a199a882a69f94U, 0x949b977784a1aa87U, 0x929da68c9e8184abU,
  0x74929e93ab849f88U, 0x9d8b998f909a858aU, 0x878f9785a28c8c8fU, 0xa389869f849c928aU,
  0x95876c8d9d9183a0U, 0x989a8b9f93918e8cU, 0x6d8a8798a28f92a2U, 0x969fa0a49d81a28bU,
  0x9085a79d9a8fa68dU, 0x9f9a91949aa790a0U, 0x888d7c8295a056aaU, 0x95808ea2a29e9c91U,
  0x8a9aa78ca87d9dadU, 0x9c8ba997b0a0969cU, 0x8d818a8e93839b81U, 0x9785a3a6a79a8f95U,
  0x8e998770818d90a2U, 0x889c8c9a98a78e8eU, 0x909b9f7f7f9fa3a2U, 0xa08d9d839b88a5a6U,
  0x949c979098a184a2U, 0x9598869089a49e87U, 0x8d859e8b8e9592abU, 0x9186908d83a39ea6U,
  0xa9ab948c949d8891U, 0x84919c9e90a1a79cU, 0x8f8399af958b8eabU, 0x9292928c8b8f92a6U,
  0x709aa59f85a09c95U, 0xa6929ea2ab9bad96U, 0x9986a58b99848585U, 0x8987a19b9f7ca894U,
  0x7c898c8b81828a98U, 0x819b977f90968d91U, 0x919695aa9f89b18fU, 0x9495897eb4b19a92U,
  0xa28f9099908f908dU, 0x9a9596889ea49c91U, 0x86a191839e9195a9U, 0x94a588a996a9a8a3U,
  0x869b9390889e908dU, 0xa1957cac8f9b86a4U, 0xa6a6a9809d848c90U, 0xa4a2969b8a889399U,
  0x86a0997a9ba3a7a9U, 0xa4a68aa3a5af9c95U, 0x8b88af809c889079U, 0x9a9d899987859eaaU,
  0x8795a682aaa783a2U, 0x959c90a4a97a918aU, 0x899a84a5a59d8c8bU, 0x9e8b98a4af9fa498U,
  0x8497a9a5969da0a7U, 0x9397949194a68e9fU, 0x9ea086828e9f9d80U, 0x9c8682919e9b8399U,
  0x8784a4959d8e9c82U, 0x978896a3947e8791U, 0x897b9c8a92a4a18eU, 0x929388a3a69baf97U,
  0xa19e8986979796a0U, 0x8e79ae9e88a6aba8U, 0x8a8e908da7a09ba2U, 0x918db0aba48e8ca0U,
  0x97a7a89195a49084U, 0x97a9859294969691U, 0x77a78b9e89a4a58dU, 0x847e8393878fa683U,
  0xaaa6a49690928d9eU, 0x8e9b988ea18f9698U, 0x8d899f8e87838b95U, 0x7e8b90899e85a399U,
  0x91889ba199a3a2a9U, 0x8c829f879083a892U, 0x8c908f939498a081U, 0x8abf86867e96a99dU,
  0x9193926da8a079a9U, 0xa7a1b3a089898cb1U, 0xb094948fa9888a8cU, 0x9da39592868586a6U,
  0x8b939c8592a5a080U, 0x9c987f9e8c8a9498U, 0xaf949c7f9198a094U, 0x9aacaa958d9aab96U,
  0x948d8e9d83a294a8U, 0x9b8c9091997292aaU, 0x8baf83a49aa3a088U, 0x9b929081829c9683U,
  0x938aa5939b8e9690U, 0x8d98868298789079U, 0x9fa19d89a2b694a5U, 0x8ca4a79db2a08982U,
  0x7f75918e8b849e8fU, 0xa9a980aa8f9fa8a0U, 0x87999f8c96a49e99U, 0x7f80a19d988a95a7U,
  0x8daa918f869e8ba7U, 0x888f9d8da686a2a1U, 0x858c9c98a98686a6U, 0x8d84949899a28ea1U,
  0xa6bd9d84738d879fU, 0x99aca88185829189U, 0x9e90799d7e829491U, 0x94999a8c808ea499U,
  0xa787888d8988909eU, 0xa78a8e909399b9a2U, 0x9386a28483a49a9fU, 0x8e948aa599a7a890U,
  0x8da992b2a1a48e86U, 0x8b909895a07f9d8dU, 0x8e94b69c859daa80U, 0xb39c909790869d86U,
  0x86aaa39880a79384U, 0xa18e79967a8d917dU, 0x879b9ea485838dcfU, 0x9c927f997e6f879eU,
  0x92a69ca48c9e989dU, 0x9cad928d8c9c928cU, 0x89849986a2808b84U, 0x939a828da3a2aa9bU,
  0xa1836e779b84a5a8U, 0xa090a98693a19c79U, 0x7a7b8774a87e9397U, 0x94a1a76299925e92U,
  0x868db0826791978bU, 0x82b69190ad9f9d78U, 0x8c989ca8917a97b6U, 0xb5a2878f859a8f79U,
  0x9c78a177847f787fU, 0x78689a8a63a5859fU, 0x93829f9b917da298U, 0x8e719b748c818b93U,
  0x8a979882908ea47bU, 0xa6876c99858d7a8dU, 0x867792857c6d8789U, 0x858f89989ea58b69U,
  0xa9969c92ad94667dU, 0x7ea08aa3a8779579U, 0x658c848e8fb29684U, 0xa585a49d8d83a4a0U,
  0xa78582899474925eU, 0xa065ae8c79879d87U, 0xa2858f4d92808abcU, 0xa598ac6c7289a49aU,
  0x7f849cb78a808881U, 0x83b25b9b8cab9a91U, 0x6e8e7aa2af93a27eU, 0xa0829e9494817ea3U,
  0x9b8b8178937aa576U, 0x708c7e8b8f80828eU, 0xc186929f8b9fa09bU, 0x98756d88ac83a699U,
  0x768293959da3a16eU, 0xafae8e7c8ca4a0a5U, 0x7ea387908e938d9aU, 0x8da29694a082898cU,
  0x618a72819380998dU, 0x8eab99a1779a9b7bU, 0x8c999b90978d8f9fU, 0x959888908ca19a84U,
  0x77a988a690a56195U, 0x9990968195859e70U, 0x958d9f7f83948f9fU, 0x9e888381a98a77a3U,
  0x8b9c8b819c83a5a2U, 0x9273779b9a877e86U, 0xa1a28c6d9da964a1U, 0x86aa8d9ca19b99a6U,
  0x939a93948c968eb2U, 0xa1a38f8b90958a92U, 0x9f87827984ab9f95U, 0x94858c9f9d988a6dU,
  0x85877180b5a1968bU, 0x8d84a6937d82718fU, 0xa49fa179a1818591U, 0xa687889f97a9ad8dU,
  0x95799c927e87a5b7U, 0xa1a09391878b8593U, 0x8a8fa099a1929998U, 0xa8878e80a6a78993U,
  0x9a99a6909496968aU, 0xa59ca59d9c89836aU, 0xa58c8c7c84959686U, 0x9a7899866ea297aeU,
  0x97918e737c91aba4U, 0x958cc27aa48a8970U, 0x8998958d99918687U, 0xa4848292a28a8b95U,
  0x959f929ea19d719bU, 0xa09da48e8290849aU, 0x9390948b84a29a7eU, 0x94727f9c738eb1aeU,
  0xad8c9a588a9196acU, 0x97a18f898b9ba781U, 0x82a37d8c9e73918aU, 0x7ea5789984db8282U,
  0x78879277a195a9a4U, 0x8184869d9d98968dU, 0x947b8282ab8f8991U, 0x7f91838f997f85a5U,
  0xa694819f91948b96U, 0x87937c85ac90aaa5U, 0x9a70a78d9281a47dU, 0xa491847a9c7b879aU,
  0x7c8475909b9a879bU, 0x969d8e7f8e91a187U, 0x847b88a0989c9a7dU, 0xa09aa984a57394a4U,
  0x968ca1979b968487U, 0xa28e908780a7739dU, 0x8c99868d7c976889U, 0x7a88a09f97a28892U,
  0xafa09a9a987c9c99U, 0x7d9b89a98e8c7f8eU, 0x998f808e917f86a7U, 0x9494828986a69582U,
  0x7f7c896289a0908cU, 0x81958c6e92998a91U, 0x9d88909e9c85888aU, 0x799c8a869886847eU,
  0x909c939ca4a09690U, 0x99928f8574988d9eU, 0xa09a8e7bad927d7dU, 0x999882899b8f9297U,
  0xa091a5898798838dU, 0x88889c8b8d8baaa0U, 0x8f868d8c9095a790U, 0x9ea789899a9e9baaU,
  0x9994a7968ea39a78U, 0xb1a691888da3a389U, 0x8e9579998e828183U, 0x91928588a19dad9fU,
  0x83888a888f9f8fa1U, 0x949099908b819b9cU, 0x9da48f9b8398a6a1U, 0x88a188a8a59ba47fU,
  0x95a284a097919674U, 0x9c9b9da0a2909a97U, 0x93939b8e8390859fU, 0x939c829880a08099U,
  0x9e8586918a75a389U, 0xac9689938b868897U, 0x969695879ca09287U, 0xa089b09b9e998990U,
  0xa183879d849e888cU, 0xa293a48c94aa8b89U, 0x9b999983a28da1a1U, 0x918f8f929988927fU,
  0x99978e849989a1a3U, 0x9fb09b8d9e61968cU, 0x94897a909998817aU, 0x94a5899c8f8da493U,
  0xa4a694a68a91a5a8U, 0x9495888e9f9a8a87U, 0x9f8a80a289a49683U, 0x8499a085a7856b98U,
  0x8ca48985939796a6U, 0x949389a56da09b73U, 0x857c8578949d859aU, 0x808390878396a36fU,
  0xa08e8c80909b9d8cU, 0x959b99989c989ea4U, 0x909a8ba098979b80U, 0x878ea087b4a98987U,
  0x8e9d9c979fa8a091U, 0x919f859e91af8894U, 0x8aa39ba6898f9682U, 0x8a8c909a9f9ba286U,
  0xa28f949c859091b4U, 0xa19f8e8ca7a78498U, 0x879e8e88969998a1U, 0xa2a1849a87a5a59bU,
  0x929d8e939d8aa583U, 0x8691a6929e9a8f8cU, 0x8083a3a2979e9d83U, 0x989d9a8fa4a49794U,
  0x83969c84929ea586U, 0x9988829d9c9e8582U, 0x8f818e818095a193U, 0xa4a5a3899f83a294U,
  0xa283918a8a9f8890U, 0x9fa5958b908983a5U, 0x8d9da4958f80908eU, 0x8995969190859196U,
  0x93968c8f819c8680U, 0x859b958095869492U, 0x85909689868c7f86U, 0x8a8385a190a3917fU,
  0x82919c83a59f9798U, 0x8396a4999f859b90U, 0xa48c8c8d969f81a2U, 0x868794a7809f909eU,
  0xa4899a8e8b818480U, 0x868098988c8b838cU, 0x9a9e929a83a29381U, 0x95838e99a0a0858bU,
  0x8e97a09781909580U, 0x9aa3809d86a2a18aU, 0x8ea48c8ea189939bU, 0x9e8a9291a0a58a92U,
  0xa2a49e88889b8396U, 0x86889f94888d8ba6U, 0x989d878a819f8984U, 0xa598a19a81838e85U,
  0x848e8e9681949d9eU, 0x9294879385a4a083U, 0x9c9b8f8c9ca09a90U, 0x8c9d928aa5808a9cU,
  0x878b809a908492a3U, 0xa6898b88a581988aU, 0xa09ba396888c958cU, 0x81a08d938f998f84U,
  0x81939aa082939a80U, 0x88a3969f8ca18a92U, 0x98a4a48c88a18e9fU, 0x88998e90a39b8b8aU,
  0x89a18a8f91899b96U, 0x978786a195909b91U, 0x99859b8782a09e81U, 0x87978b82869f9080U,
  0x9ca67a94a098726bU, 0x968f8b839395949cU, 0x94a9648ea167838aU, 0xa87f8e6d76739383U,
  0xada09099a180527aU, 0x63829f8081a2938bU, 0x7d8ba1ba939795a4U, 0xb895756e9da28077U,
  0x84809d9776a1839dU, 0x93949e8d8890a47eU, 0x6b557b7787917897U, 0x8ca7758d93779f70U,
  0x8b91578d6f5e5799U, 0x77a49e77aca2a7aeU, 0x8d997c749284a581U, 0x98a296819a90827aU,
  0x876f899b797e7a7dU, 0x8f8b948e9db36c92U, 0x95ad759095aa939cU, 0x7e909b8095977c67U,
  0x6a817cac80a28e70U, 0x7ea06ca2788758a2U, 0xbd8281a682926099U, 0x9190b2589da1a693U,
  0xa68b8391a4998d8fU, 0x8883aa5f96706e97U, 0xab8daa92a75cbbaaU, 0x87834e9f8ca48ca8U,
  0x818b948f768b8192U, 0x96b09e7a79787e75U, 0x8ca0998d9f898379U, 0x97b1a18d9d70998fU,
  0xa0836d88aeb166a6U, 0x837f899094ad8480U, 0x978b9c91889da19dU, 0x9ba39c9a85867884U,
  0xaa91817e888a9a65U, 0x967d97799278929fU, 0x9c5a8d5c4d9785a6U, 0x7f8396899490a379U,
  0xa2a76f6194a0919fU, 0x9f95928078898f81U, 0x9296919c93909c6bU, 0x5996acb0af9c9265U,
  0xa8b3a48e95996a7eU, 0xa39994a5ada67a9dU, 0x8d9fb49ec18a8f88U, 0x916091a491938f9aU,
  0xa5909d83a0959ea1U, 0x91898e7f809e6077U, 0x489fa19d9268adabU, 0x8a92a896a68d9da8U,
  0x9384947c78989883U, 0x7f8da1a69d85a39bU, 0xa38eb18f949eae96U, 0x86798ca39c8ea68dU,
  0xa1819389989a9f92U, 0x92a4aaac838483aeU, 0xa3a29085917b9664U, 0x77968891918c8b91U,
  0x91879497a37aa198U, 0x9a96a46e8f998891U, 0xc1aca28e89909f8fU, 0xaf969c8b998d9e72U,
  0x9ba7859d7aa4ad94U, 0x9c957f957c9590a9U, 0x8c888693938d947fU, 0x96948366a298a784U,
  0x8aab88869c89b095U, 0x938389918c84808dU, 0x847297887ca88899U, 0x929a95aa9c94b198U,
  0x8d978e99898d8f67U, 0x927ca6b7939492a2U, 0x839a97538aa0968fU, 0xa79094a0a23d897eU,
  0x8d9a9b9392a593a7U, 0x7c927d847f7b859dU, 0x9e9c88929a7ba49fU, 0x9f9b89849a8d89a2U,
  0x6a8f7c758c8a7c96U, 0x929ea8829191a68fU, 0x9f95a0548fa1949eU, 0x96a5998472858a88U,
  0xa08199a2a6977e86U, 0x7c888c8f8e91959aU, 0x988a9cb58b78819cU, 0x8f879d8da4798c83U,
  0xa786a68fac88ad94U, 0xa07c9187968677a4U, 0x6d879f9a8e8aa290U, 0xa5888b848e9989a6U,
  0x8b999a8384846fa9U, 0x8b7a9d889f9568acU, 0x959b7e829ba59e91U, 0x9e82ae74a494a990U,
  0x99a26b9a858a93aeU, 0x9e85a5a0947a7e8eU, 0xa16b959f869dae86U, 0x77b66e87839191a3U,
  0x92a697918d90a594U, 0x898a9b99a291a896U, 0xa88e94a6909b99a1U, 0x8b867f98948999a2U,
  0x8683a09c968ca487U, 0x8b8786a37a8598a1U, 0x9b98a69a9c9b908aU, 0x8179a4a2918d877fU,
  0x9aa38fa19b859b86U, 0x8e809095a4a786a9U, 0x8ea6a79e93a3a284U, 0x939b889ba49aa298U,
  0xab87a3869ba19f8bU, 0x9e9c9997968fa2a1U, 0xaba18d9d9a95a287U, 0xa28394a185788c8bU,
  0xa39d948c9e949098U, 0x91988e9999929381U, 0x8281999790989da6U, 0x8c908997a792a496U,
  0x89988f8694a0978cU, 0x8492a39e9ba28f9dU, 0x8c9e9b8495859b8dU, 0x8bab7fa083999fa1U,
  0xa3a29e978e968a8dU, 0x8486989595729c86U, 0x8e9b828f9885888cU, 0x8588b391a39e989eU,
  0x869ba08c9b989290U, 0x9f9484929ab08784U, 0x7da0939a8f9d9babU, 0x99aa9f9594a5a483U,
  0xa38781959075979dU, 0x959a91929f889b9cU, 0xa88a819b979c9596U, 0xa5879f85a184a58fU,
  0xa580a7a88482a59dU, 0x86919494988f96a3U, 0xa1ae81a98b8ca485U, 0x9986ad93998d8e88U,
  0x9184a7a69b85928aU, 0x96ad7f9397a7828cU, 0x93a498a88b8c8987U, 0xa7a487a0a3a58f9aU,
  0xa6988aa38a9caa94U, 0x9ea49991928aa0a4U, 0xaaa28699a2a3808aU, 0x9da999a783918e85U,
  0x7ca782a7a4a4989aU, 0x8e89a299888ea883U, 0xa59c99889185ada2U, 0x95a582a28e87848dU,
  0xa084a79b95a59e8dU, 0x939ea59891a69b92U, 0x797d828c93af8ba7U, 0x88af8d9f7e78959fU,
  0x989c8d91a483948fU, 0x89839c8f9585977aU, 0xc285689b8aa591adU, 0x889d83a194808795U,
  0xa9a0948998b08e84U, 0x97a696a49d8299b4U, 0xbe9190969db09697U, 0xa1979aa69d7a9097U,
  0x8f9f8e8a86a37890U, 0x91a385a36b7897a9U, 0xa793929b9ca99d7fU, 0x858da793a782ad8aU,
  0xa48cbf9fa69a8298U, 0x958a828da3909f9cU, 0xafa99e95999c9572U, 0x79919081aca3b27eU,
  0x887c98ab8fa5a291U, 0xada082748eae9da9U, 0x9e888b999aa39da2U, 0x83a78fa9a2a29270U,
  0x848c8c8c938f8c9fU, 0x769ebe8093839e86U, 0x889e9c8c8e968fa3U, 0x96879e867f959289U,
  0xa299ba8c858893b0U, 0x81ab9d7f918291a5U, 0x95a388a57996a1a3U, 0x96a1879fbb9cb39eU,
  0x96958988948196b1U, 0x94a388969ba7ab9dU, 0x9c91a5938f909c89U, 0xa0999b8990979487U,
  0x8eb486ad8da29697U, 0xada496a98f8384a5U, 0x869ba1bba89a9e89U, 0xc1a09193849e8a94U,
  0x949a848e979e7b9fU, 0x9c9c7f9794a89780U, 0x8e879ba293999495U, 0xa38b878a99789babU,
  0x9aa6ab8a777fa790U, 0x898cad96a1919894U, 0x6f868f8f927a93a6U, 0x9b7f8aa98ca39498U,
  0xa2a986888c8ca98bU, 0x888c7d82a4a67e82U, 0x83898881988da48aU, 0x929b929f95999399U,
  0x95938a9c8696d482U, 0x92957c9b9c7e899aU, 0x76989ca5a388869cU, 0x7283778ba47f9174U,
  0x8a7185989a9c81aaU, 0x928b7b8a9d839887U, 0x8f8b8f8a8f7f9ea9U, 0xa29097939d918aa5U,
  0x999688a59fa39297U, 0x9f9a8b9f8f7da1abU, 0x879ca2988a7b7798U, 0x968d7bae8b869e91U,
  0x97847e978d8baaa7U, 0xad978a9d84a29294U, 0xa5939a869d87948aU, 0x8e8897a182ab9995U,
  0xa88c867d97877e6bU, 0x92a3a687a1a1959cU, 0x978589a57c9c80afU, 0x8b889d7083918fa4U,
  0x7dad8db4789d8382U, 0xa38891929278a05fU, 0xa2868f8d94a487a8U, 0x97a2a1828e989d83U,
  0xa09182a36da68590U, 0x9b9f7ba8a2966d93U, 0x76849192958991a3U, 0x7ea08584869187aaU,
  0x9898a7979570898bU, 0x9aa2a596b4a19e98U, 0x9a95a8768d879d83U, 0x9ea77c8c938e8ca4U,
  0x9ea59c868f7f9ca5U, 0x9b969e9ba8838d85U, 0x8a8ea7a9a17d8c91U, 0x89a08a868f9d86adU,
  0x9b759e8f8c879293U, 0xa7969395a3829598U, 0x90918f869c8c8985U, 0x98969f8fa396808dU,
  0x907b98a1a7aa7e97U, 0x89a279a69c8a91a4U, 0xaa8b7ea5857f9380U, 0x9a92ae9a8d8b8f9aU,
  0x799190a28696948aU, 0x897d94a2819d9aa6U, 0x907c8d9388a1a49fU, 0x8c91a0a589899389U,
  0x8b84a17d98a5a685U, 0x8e9fa773959d7a95U, 0x9c9792929292a490U, 0x8586879e9f92917fU,
  0xa3938f9f7f938eaeU, 0xaaa77ca8a6a58482U, 0x8ba49089789d90a2U, 0x878490878aa1a292U,
  0x9e83858f9d948a8eU, 0x7f709c839c839e95U, 0x9292909d948e9884U, 0x94837e869aa28687U,
  0x83969d9079759182U, 0xa0909e8fac92978aU, 0x8e89a893999981a8U, 0x79a5929a936ca596U,
  0x7f969a849d9f8e91U, 0xa29d95a0889a97a3U, 0x8b8b998f8e93a291U, 0x9a8e9e9c938a879bU,
  0x92a8a878a79f87bcU, 0x8497ad7b748b858bU, 0x83a687ab948d8a72U, 0x9d9a707e93969385U,
  0x6b946d8088868d6fU, 0x98819aa594939d9aU, 0x85848297a980838eU, 0x96978a828e8196acU,
  0xa2929a8d9698999bU, 0x8e8b948f939d9192U, 0x94989e958cab9e7dU, 0x9f8c8888a6858788U,
  0x749e8a92927f8484U, 0x8e9d7f8d9e80899eU, 0x7388917c82a18fa1U, 0xa79e92898f80987fU,
  0x99999097807ca1a7U, 0xa593a29d928e8483U, 0x909490927aaa7c99U, 0x7d91a78da39e908eU,
  0x8586897f9c87a4a3U, 0x899298809e9fa0a9U, 0x84a1a28f9f7f9fa6U, 0x896e8b97a1838b82U,
  0x9aa18774a6a36898U, 0x9c917b8489888685U, 0xa48ea67f778eaaaeU, 0x97a59d9d87929787U,
  0x9880978c867f89a7U, 0x8f858e857d82a790U, 0x8184ad8b8d97a4a4U, 0x8fa398848e9a9281U,
  0x96a08b969f899aa6U, 0x7f8da08e8d8a8979U, 0x9d9f859e827aac9dU, 0xa58d89a79c948e9bU,
  0x98a19982a0938d90U, 0xb65e89927ca89298U, 0x81a18a8b929d87a3U, 0xa16c9c87a6908e9eU,
  0x637f8eaa99969e93U, 0x9950769878849398U, 0x8aa089aba1988b86U, 0x95a0838e8bab838eU,
  0xac9b8f898c7d7480U, 0x89a69285985ba48aU, 0x9e96908c90a9968fU, 0x798b8da792859e96U,
  0xa2957e898c7381a0U, 0xb7978ea59f879488U, 0x9da19a789195a0a2U, 0x8e85a18586986e94U,
  0x92938c9785769b99U, 0x958a6a7f91aaa1a2U, 0x7497a595958c9a6fU, 0x8f899f9a8a84a181U,
  0xa47fa1889c9ea086U, 0x91998b8ca08191a0U, 0x967c869c91a39672U, 0xa5707c97a68c9699U,
  0x9dad93a489a19d99U, 0x8c838290a78396a6U, 0x82898b9fa05b9c9bU, 0x9b958995a09481abU,
  0x64969f93a08e838fU, 0x9e9b859074918b96U, 0x9a8492797a849c86U, 0x87848e879ea6828fU,
  0x78889b869ea36a87U, 0x9492a77e8b99a7a5U, 0x579083968caf88a1U, 0x8d86867989868f94U,
  0x858882839c828e9eU, 0x8570869c81a0857fU, 0x8c96a491a3aa6d90U, 0x9e9d7d959ca89d85U,
  0x9a8c987e879ca3a0U, 0x8b93ad9fa09a8092U, 0x8f9294a986a3a78fU, 0x9da89d8aa4a17f8bU,
  0x8ea783b197989b8eU, 0xa08d938aa186a78bU, 0x7d71868083888f7eU, 0x879f8382989e888bU,
  0x92a0938f8785a2a0U, 0x907ba49c92847799U, 0xa4977392a47ea48dU, 0xa4a88a8f928a8b93U,
  0x96b88d9097afae8dU, 0x849292899f9a9597U, 0xb29c907eaa939388U, 0x8a878f95a781b59aU,
  0xa098878a8ba4919cU, 0x917d8f9a5c72968bU, 0x8fa38b89a59c9b86U, 0xa584a28f7ea4a796U,
  0xa488a4a1b179a28fU, 0x868b966c8d85a58eU, 0x8aa2ac88a3bc8998U, 0x908a8baabf919493U,
  0x809c9c978c999f9dU, 0x8d9b99a2a79f9c9bU, 0x8d828a82a1a483a3U, 0x7a85949796a48195U,
  0xa2a29a9e8c7f8795U, 0x7b83968b9c959f82U, 0xa192a2a38996788dU, 0xa39e8b868baa818eU,
  0x87a396a39e9ea49eU, 0x9b9bc1999898989aU, 0x9278a08b9b7c87a2U, 0xa48c998a9ea59d9cU,
  0x8799a78f9e83929bU, 0x95809c8bac8392a0U, 0x8f848f8883a69d8eU, 0x88a38695b69196a9U,
  0x849f9e92839c8b9aU, 0xaa9d95c09b828d91U, 0x88a0a0988c8d868bU, 0xacac7d8d8c9f9e98U,
  0x8ea984a3969ea0a3U, 0x7eb098a4908ea67dU, 0xa59c8faea7879a90U, 0xaaa79d89938e9996U,
  0x9f94858790979f8dU, 0x9d94b893987e979eU, 0x7aaa909a9ea0a38fU, 0x9a9e969f92948c81U,
  0x81827c98989ca68aU, 0x878b919f8f9f88a6U, 0x99849f97a2ae9886U, 0x7c7b75a8a09d8c94U,
  0x89938e8a949fa09bU, 0x92b79e848f9dab82U, 0x9f9991797e80719eU, 0x777eb99f909da0a3U,
  0x95ab86a5a47d9baeU, 0x8e939f6da1a38095U, 0x9fa881a6a69c8c91U, 0x99a594968e87a2aaU,
  0x9f9e6f79939a6d95U, 0x9993949580898ea2U, 0xa6a490949faa878bU, 0xa28aaf936e677b9eU,
  0x928e989a7675a594U, 0x808c906b958f84a6U, 0x857b95a38e8da793U, 0x91a17c94a58f9880U,
  0x8c99878a7faaa8b0U, 0x9f69bea59e93a896U, 0x88797c9186869a95U, 0x8c9d6eb98e9d9686U,
  0x94939b64927c8386U, 0x849d9ba09178999fU, 0x919f7fa19da38fa7U, 0x977f978594a18a9bU,
  0x859aa27bad7c82a6U, 0xaa85a9848b8e8c7eU, 0x80ada67f81a28589U, 0x9391a192868ba59fU,
  0x939a89a47e979da2U, 0x89869eaa9b859b91U, 0x848f979b839d8a80U, 0x89937e8a9078928dU,
  0xa09d94a1658a949cU, 0x9da37daf8789a19eU, 0x95ae91b08ba9939cU, 0x8b9291b0aa868f84U,
  0x9e8daa988a999561U, 0xaf8f94827c879f9aU, 0x87a0928c9ba47ea3U, 0x8d9c918e9087937bU,
  0xa2958c9b89958fbdU, 0xab9d88897e949990U, 0x9da57a8b8a8e8881U, 0x9e93b1908d9d9883U,
  0xae9aa28a9b869d8dU, 0x95a893977e89a391U, 0x84a48a969c83807bU, 0x8f7d8c8b7e7c94b0U,
  0x7a7794a280a88896U, 0x83827da290a98a70U, 0x9e92a8888bbfa6a2U, 0x84908b8f917da687U,
  0x8e9a87a5917184a8U, 0x8196669b86a1b199U, 0x8ba9879bb7839e74U, 0x9a567f9f87939d8bU,
  0x7c927d9c81919fa3U, 0xa15f8f8282a38290U, 0x688c89a89a8b976dU, 0x9e59638ba48f789aU,
  0x6380a4aa86cc9691U, 0x97c48b8a91969ad1U, 0x848488848a92669eU, 0x7d96a18bbf618161U,
  0x87a8938b7879a293U, 0x879581978e8696abU, 0x869e75979d63a7c1U, 0x9286899a8d6998a5U,
  0xa9a1a998928b9381U, 0x909ab7aa838e687aU, 0x9c9e9d9985a4a38dU, 0xa3ab5c7c7e7b92a0U,
  0x6e7988889b939a7fU, 0x7f949883a18fa0a7U, 0xa6a59ca593a08e62U, 0xa78b959382899099U,
  0x9c9884928b9c9c82U, 0x9e5d88899d898cabU, 0x928f839ca5848c65U, 0x9fa0a7a78da2a689U,
  0x7e8878979f60679bU, 0x869a818f959d8295U, 0x6aaa61759e9b8194U, 0x95a57bd19ea07b97U,
  0x91908086887d97a3U, 0x988485868575ae95U, 0x8f90a7a78f956eaeU, 0x9599a6968172a099U,
  0x4f768c7ea1848ea6U, 0x9e7ea6938498a59fU, 0x6f9f749189a0889eU, 0x8774a68b89c78395U,
  0x81a8926690809aadU, 0x90819a84a7a08391U, 0xaf7b958e8a95a791U, 0x9c928093a0648b93U,
  0x929f919787848aa0U, 0x9d8ca2988296a4a2U, 0x8397878b80a28f9eU, 0x92829995a191878dU,
  0x979d8499838f8386U, 0x86968d86919e8396U, 0x91a2a28f8e8c96a3U, 0xa29094899f99a483U,
  0xa788a09f979786a0U, 0x9b90a4a48aa88992U, 0x8499978e98989997U, 0xa689998b9c9fa39fU,
  0x998d919b8c9f9387U, 0x82878ea298979ca3U, 0x8e95a28ca4819999U, 0x8b969689a3939b96U,
  0x849594939f95957fU, 0x8c93a2809b9b8284U, 0x85938e999b8898a5U, 0x829a89849d9a879aU,
  0x96a0929f908d83a1U, 0x8a8b9c9298918299U, 0x9f9d8b8a8aa28498U, 0x829f849180899697U,
  0x918c908aa58686a1U, 0x908683a49087958dU, 0x8a90a28699968787U, 0x988fa29581988283U,
  0x899ba38f8180879fU, 0x8fa4998381898793U, 0x8ba4a3879f9a8494U, 0x879f90849b96908dU,
  0x8982858da497928bU, 0x959b889885939aa1U, 0x8396878da289a387U, 0x818d928f8c839ea2U,
  0x94a2908990839d92U, 0x86a6a59b7f838191U, 0x98818492a587948cU, 0x8d9a88a497939494U,
  0x998da19d8482989eU, 0x868ba6a182978a81U, 0xa49b7f999ba28ea6U, 0x978a8f869f969981U,
  0xa59299839d929494U, 0x90839d91828b9e86U, 0xa099868b8092908fU, 0x99929a9e8389a595U,
  0x9e9f9d998096958eU, 0x9d8d9284848f8c87U, 0xa496878996988998U, 0xa195998f9284a58bU,
  0xa991959da795948fU, 0x97a68f9090a780a5U, 0x94a68e95879f98a4U, 0x9da497908b8b8b74U,
  0x8c9b91aa8b919fadU, 0xae999da18e89a095U, 0x80a4a3a98ba39a96U, 0x8c9aaaa49886a280U,
  0x96a9a4867f9a7f87U, 0x9d8e9c937ba19e91U, 0x758e88a47fa28ca4U, 0x9b957da592a392aaU,
  0x999ba7a27aa2a194U, 0x928e85959d8d8683U, 0x859c9285948f9e95U, 0xae899f89988986a7U,
  0xa19284889f98a697U, 0x8886a2a883a5a490U, 0x8aa3a18b8c9f828cU, 0x9980829c9488908cU,
  0x97ae8993a2a49aabU, 0xa191ada08d7b8fa3U, 0x8ca97e9b99988695U, 0x9b9f9d91a8a7a596U,
  0x93919a9f88909e7aU, 0x889d95999d93a688U, 0xa885a88c8a9b999eU, 0xa7ae92889c8880aaU,
  0xa0867a8c978b9d95U, 0x8d7d838aa8a398aaU, 0x95918aa5939d7c89U, 0x9e8f877d7f9b9b8cU,
  0x9587afa4a98ba098U, 0x7a91a5948c9d9191U, 0x99898d91a1a78da5U, 0x898baa9b9ba49798U,
  0x9a889e957e959690U, 0x958198a09ba1a593U, 0x8eac889d8da39c99U, 0x7290b09e919e958aU,
  0x8e87a29da0929e9fU, 0x908295b29e8da7abU, 0x9799a0868a848896U, 0x9a9b97a99f85818aU,
  0x709a908987929f91U, 0x8294747389a48aa7U, 0x9e8b95908a9f8ea4U, 0x95a788828b99abacU,
  0x8bab92a5848e9299U, 0x89789f88a19998a5U, 0x9e8e9361837a9fa6U, 0x9fad8b738aaa9372U,
  0x92c3ac8f9b7c6c9bU, 0x699485a897847895U, 0xaa9799b19993968aU, 0xb39d5181978d609dU,
  0x6671d39b80aea2a3U, 0x9ba295999c7d8395U, 0x598a895f8a97857aU, 0xa1a98d80827eba81U,
  0x965e7e9d50a2a09fU, 0x869798809a85a695U, 0x60899daa849baaafU, 0x87b0999ab2cd948eU,
  0x8f7c9c8f95a19778U, 0xa49e9e97b6a48c90U, 0x92796b9699b89f94U, 0x94a274b356a6969dU,
  0x75645b7b759c917cU, 0x79b69d6a9b8c8aa2U, 0x7f728993b1949c95U, 0xa1939588829f9c9aU,
  0xa28d91b490968e89U, 0xb49d879f8da4ad7eU, 0xa59193a2948a6a9cU, 0x969b3e9e94887684U,
  0x998b999f7b8d9696U, 0x8b7d90909c768ca5U, 0xa17493a37f9d8f7dU, 0x9b9894a29c9e7c99U,
  0x94998a92afad9897U, 0x8b888e9574936c83U, 0xa0838ea78d998280U, 0x8f73ac968f93759eU,
  0x959f8b96a89b9b8cU, 0x96807b8e56848775U, 0x715a886f8faf9f92U, 0x62a66e8f92857969U,
  0x98b2864a92a98aa3U, 0x8b578f958d9889a7U, 0xb27690a29c989f80U, 0x777f7baa8899999eU,
  0x9bad917aa3ac948eU, 0xa98a8f81aa9590a1U, 0xa28a978b6e8b888aU, 0x8c8d4c9ca0789d7cU,
  0x5998728e90929592U, 0xb488907a8e9a819fU, 0x8d9b80a3918ca791U, 0xa597a58fa18a8faeU,
  0x92a29e997699a292U, 0x87a2b96993ab999cU, 0x8790ab9276b0c38dU, 0x819a8f97b17c8f8aU,
  0x9b8e9992959a8e8fU, 0xb39a7ea28f7ca987U, 0x9880a277938e9db1U, 0x7ca184747e9c8c99U,
  0x9192849c929297a8U, 0x7285888a95a58b9fU, 0x9390838f87a5a5a0U, 0xa58b89afaca1898fU,
  0x82938aa08ca0708bU, 0x919a92a18d898ab3U, 0xa1859e97a3918a8cU, 0x9fae9070b39c9e99U,
  0x899286a28e9dad9eU, 0xb5828a91789184adU, 0xb490898387a2838bU, 0x7190b2867e8ea591U,
  0x9c9b98ad94928e6eU, 0xaf8694a07083a994U, 0x97a08ea7afa38d8cU, 0xa7b4a4ae8c4da07aU,
  0x91a545869892a082U, 0x9c9b9a999190a0a8U, 0x8d847fa3958f9c81U, 0x8a8ba79c95949b8fU,
  0x869494969e8f8a98U, 0xa3908f91a08b8a9aU, 0x9a9e9e979790999bU, 0xa9a18aa1b59490a1U,
  0x9d8eaba992858b80U, 0xa1a69a9f9695a2aaU, 0x9d94af73a0958b94U, 0xa3b5a6809c878373U,
  0xa3987e7e7989a8a9U, 0x958e898786889099U, 0x74888aab9599b392U, 0x8d9999a39f83a586U,
  0x819f82a0958a869fU, 0xb1818c8e817e7c93U, 0xaaac9b888ba28dadU, 0x8a89aa857f878389U,
  0x99a68995837e93aaU, 0x86969c94998ca291U, 0x977f899882959892U, 0x92ae76839c988893U,
  0x8b9f91abaa7e8d84U, 0x96938392b089858bU, 0x90927d9b749b9391U, 0x92a7738da298a592U,
  0x8c847e9390a07f97U, 0x95b18c9493988e94U, 0x8795818a939e7d8bU, 0x9a81a38c9ca085a3U,
  0xae6d7999999496abU, 0x85999d94b29290b3U, 0xaa9e8c909a9b8e8aU, 0x9c8ca09c84878da9U,
  0xb5908c8c8eac887aU, 0x98af9d86a28ca49eU, 0x95a484879ab099a3U, 0x9291b3b08e8d9d89U,
  0xab90898b978fad9bU, 0x7d7f949997a18c8cU, 0xa394908ba687679aU, 0x8e97a487a0918973U,
  0x879e9896a6b2b1c7U, 0x88b2a793b8aa9793U, 0x6c7397798fa39ea6U, 0x9c9879c596a3a394U,
  0x87859c878688908dU, 0x919d7cae7dad8aa0U, 0x939d84a0949e7ea7U, 0x8d929e9e9b9f9197U,
  0xa182a084a2a88a91U, 0x9f7b8c8896a9a78aU, 0xb0a1a98c79a68594U, 0x84a39986899e878bU,
  0xa5888f9a9c90a096U, 0x7f7fa4b8949eab8fU, 0xa8a485878b997696U, 0x918a9397a5a59f9fU,
  0x7b98939ea0a48a8bU, 0x929c9392a8908ca1U, 0xab8d9d869dab8390U, 0x8ea186baaa94b189U,
  0x8f93cd97967b8079U, 0xa4b59793848e9096U, 0xaf909c8c84868886U, 0x91a29b7a94a8a58dU,
  0x86a08b98899a919bU, 0x8f957f83a570a5a2U, 0xa8859b9fa3a67686U, 0xa499959eb389be8aU,
  0x97a2848f88818473U, 0x8d6b85a59aafa07eU, 0xb3929bab829a958cU, 0x92a685a49d887e85U,
  0x8f8aa399888d8d91U, 0x9584a3949a9e87a1U, 0x9c918f90a08bb994U, 0x8fb1879fa47f9fabU,
  0x9c8597909594888cU, 0x87a79695978f9499U, 0xb0767d9f9c8492a9U, 0x9b928a91859581a4U,
  0x888d8697a1ab9998U, 0x7d91909ba89d879cU, 0xa27487908b9b8c82U, 0xa49290b0929f8b8fU,
  0x8d95978384898c94U, 0x7aa18c956e7984a5U, 0x928c8494ac939c9eU, 0x77a496898ea2a8a6U,
  0x828689a1929b9f96U, 0xa48c84819e83a29bU, 0xa29aa7827b909187U, 0x7987ae8ea383a49eU,
  0x797899a6949c957cU, 0x92849c999a9b8697U, 0x7d9d9595a19b9783U, 0x9caaaaa5a17e9283U,
  0xa4978b92a48c7d97U, 0x87789c8c977e9e87U, 0x888c88908d8d9f9dU, 0x9697a191a887a68aU,
  0x908ea8888691a09cU, 0x87a194948f7c8aa2U, 0xa477a49b938fa399U, 0x878b8f869ca494a3U,
  0x9c82a29b95a38297U, 0x8d8680918f9b8ea0U, 0x9d7493828b738a98U, 0x78ae96aa8190a27cU,
  0x97b37e9296867889U, 0xa7788aa19b748591U, 0x9e8798a29d849695U, 0xaab3759b888e93a1U,
  0x8e98969a85828496U, 0x9aa48c9f7a97998bU, 0x8e9b989d978c94b1U, 0x8fa0947a938e968cU,
  0x929e85a17d9e9d85U, 0x9e8a9d86a5899099U, 0x968b88968fa5a285U, 0x87a4848b7b99a897U,
  0x848ea1899d9da19dU, 0x8c8aa282939b87a3U, 0x9785a2989d87a38eU, 0x87948da4978c828dU,
  0xa09d8a9d9e829682U, 0x8e889e7ea299869bU, 0x7e8b91938281838dU, 0x9683979f83989c9eU,
  0x8c9d86828c8a9ba5U, 0x809097a18a978d84U, 0x9e89989a979ea699U, 0x988d969396908187U,
  0x869c8b8f8c81999eU, 0x87997d8f9ea47f8dU, 0x8385967e8e839190U, 0x9d91929f86a57f90U,
  0x818da79299a58c87U, 0x9b95a29f7f8d9391U, 0x8b92868086969d81U, 0x8981878b88839285U,
  0x83888394a1818e95U, 0x9d8f83888494908bU, 0x979984988b8297a4U, 0x87819d92947e9093U,
  0x929fa09ca18da58fU, 0x7d89a296939d878fU, 0x9391839986858e9cU, 0x8b818587a1828aa1U,
  0x8a8aa1928a89989fU, 0xa38d838a898b9798U, 0x8e8d87928c93a283U, 0x7d8e9a85819b8a87U,
  0xa288a0939984977eU, 0x9f997d99848a8b82U, 0x848985979d84878aU, 0xa38399a48ba3869eU,
  0x9f847e8a8d988993U, 0x80909495938b9596U, 0x7f9381a192888d9eU, 0x9ea79ca09e9f8889U,
  0x86899e9197a09996U, 0x989b8e87a285a28eU, 0x979f899a93838999U, 0x8ca78497a07f929bU,
  0x93899585919d8e8aU, 0x9fa081a2958ea19cU, 0x8d8e999d8a87929cU, 0xa680818c8a918d92U,
  0x9a95879786898381U, 0x899ea19b84a2a280U, 0x8aae7a9083799d97U, 0x9d8da38a968e928cU,
  0x89908b9c6b9d9993U, 0x9f9791858e9baf9eU, 0x798c91948dad929cU, 0x96ada0a88f8c9ca8U,
  0xa2958f97977f8d98U, 0x9d97a87f8f90a086U, 0xae6898838a819c92U, 0x82ac958a9092a795U,
  0x9e968faa93aead9cU, 0x80a48797ac989590U, 0xae87897e9aaaa08aU, 0xa894aab19785a176U,
  0x889881998c9f7aa5U, 0x94979bb1878c94adU, 0x988c889c9b958e7aU, 0x8895938698a5877cU,
  0x997f8b9d87949d94U, 0x9e889a93a880877dU, 0xa6a3a77b9ea1ab89U, 0x7e9aba91959ba9a2U,
  0x76768a9f99879574U, 0xafa797967ca0968cU, 0x8f98a28d97937b92U, 0x97a2a4a68377957aU,
  0x8e92628f8a9495afU, 0x818cb389898f9094U, 0x8b8d858f8ba58088U, 0x96a298a189a7a88fU,
  0x9a9db0a27faa9b8cU, 0x969ea59f81859389U, 0x908f948b9499a193U, 0x9bac9a939c7c9f83U,
  0xb186909b9b93898aU, 0x92829c8dab84a890U, 0x9f90917e8f889391U, 0x9898909ca3949e7eU,
  0x9faf7e9e998a87a8U, 0x9f89ad919d7ca083U, 0x7c86a994a385938bU, 0xbb97869f8f93987fU,
  0xa59096889b958a96U, 0xa390888282a39a91U, 0x8a9787aa8b9d9cc0U, 0x86a38592839d868fU,
  0x9da8af9a87907b9aU, 0x9b95b2a7a28baa9bU, 0x8e82a08b85849d8fU, 0x907d7d8582a7a38aU,
  0xa47f9e958a9ba3a2U, 0xa18a91838f8a9088U, 0x926e9b86ab899789U, 0x919fa79f89a1818bU,
  0x999c84949a89979cU, 0xac9a987d928da38bU, 0xa7a0a49d89759ea4U, 0x92a07f93a4999788U,
  0xa3a19078a287a48aU, 0xa9909c8f98a28aa6U, 0x8886a0a77b848b9cU, 0xa6699f9a8aa79190U,
  0x9395a28992939d79U, 0xa263808e72a2a4b3U, 0x8780a0a1856f88a2U, 0x97948b8a8da59392U,
  0x8486888a999095a9U, 0x9bab8b94937a967eU, 0x858d9baf82a19c9aU, 0xa083908c9fa4949bU,
  0xab86928c88819169U, 0xac777da37c73a08fU, 0xadab92859296abc0U, 0x9b9ea5818a948292U,
  0x8495a79c9b81a095U, 0x949e6b7c94aba182U, 0x559eafa8a8aea976U, 0x8fa2988c8aa7988fU,
  0x989f858690958d6bU, 0x8eaa9c897a928fa2U, 0x95877f95a58ba497U, 0xa49e9589929498a8U,
  0x878fa8958eaea26fU, 0x95a38f89a78780a1U, 0x909692928788819aU, 0x969d9b888196a189U,
  0x6b87829f9aa1a094U, 0xa2899ca07e9ba09dU, 0x8ca28b908e8c889fU, 0x86a7978a899e928dU,
  0x7f977aa98d927487U, 0x7aa39c9c90a3989bU, 0x8c9aa67d938ba09bU, 0x889b9a8c947e849fU,
  0x92a6838b848b9c85U, 0x8b68a28999869480U, 0x90859780898882b1U, 0x9f96808e8caaa09aU,
  0x9f9d88838684a49fU, 0x8599a0939a958886U, 0x8ea29d9d9696a481U, 0x898a8f878d998590U,
  0x8fa093a4909f8d89U, 0x9e8f8c999782969aU, 0x899983958d919985U, 0x8496858c80948296U,
  0x9c9493a0a0a09493U, 0x99a5849b889289a2U, 0x9492a196a4a28283U, 0xa782849b97a18186U,
  0x9981939f9595859cU, 0x8a9b878b808687a0U, 0xa189a693a1a29093U, 0x9185848a8ca39aa1U,
  0x8c848fa589a59fa0U, 0x94979297818c908fU, 0xa483a19383839b8eU, 0x839c839089908390U,
  0x8384899a8581859bU, 0x8e89958288a79e9aU, 0x9ba08887889d8587U, 0x95879491a0919492U,
  0x93899f919b908789U, 0x8aa5a083968fa386U, 0x92929a8a83908a88U, 0x9085969c8890918bU,
  0xa191a38da29e9b8dU, 0x8f908292a1a08683U, 0xa19282909492a494U, 0x8a909b9981898f9eU,
  0x968980819b8e9e9eU, 0x9d9a8d8b8fa58ba2U, 0x95928da38890889dU, 0x9a928c9490908483U,
  0xa6858b9f8e94928fU, 0x8c8591a087998390U, 0x9d9ca4868d927f9fU, 0x949b9ba58789898eU,
  0x8f979aa0868383a2U, 0xa0a291958093a08cU, 0x8c9a928286889b8bU, 0x9891858f86879f82U,
  0x83998d909794889eU, 0x8f8f82a588a79a8aU, 0x948da292909e9982U, 0x98849f97949e949bU,
  0x9997998c9b8a8ca5U, 0x9f8ea29a94a09791U, 0x83a0a29ba1918090U, 0x92819f84a2938ba3U,
  0x9b8d987e84a1a487U, 0x979783a6888c9c82U, 0x9b8597908799969fU, 0x94988b9a8b96978dU,
  0xa692ac849d8a6590U, 0x9e968fa07ba4a787U, 0x868a98a18096a093U, 0xb0948d8a9b938ca8U,
  0x918d9b8b83888688U, 0x9390ab83929d8f90U, 0x7b87868884a18f8fU, 0x9c9e82a5877dac6aU,
  0x88ae8ca27f8f8a9fU, 0x7aa49884a8ada0a0U, 0xa18c90948c8bc598U, 0x919e8795ac958d90U,
  0x8da0a48b948c9886U, 0x8f909aaaa6a198a2U, 0x859588a2969f8694U, 0x90a4a7979e92968fU,
  0x7f98938c7b8ba18eU, 0x8d849fa296a6a49eU, 0xab968f997982879bU, 0x928fac9b9882a4a5U,
  0x897ea29695a68885U, 0x979ea98199b388a3U, 0x95a585999196a4a4U, 0x8d968392819e8096U,
  0xa5a09695a9a3769bU, 0x979f86a18799879dU, 0xac9c888e8a868499U, 0xa88c9483a19194a0U,
  0x81719493a1af9d92U, 0x89a2a39673948ba8U, 0xa8869ca28e8d9a99U, 0xa4a9908ca28b99a4U,
  0xa8a69987909da680U, 0x9388a38a998e97a7U, 0x88719c899a8b9897U, 0x84a475a6a29f8c8dU,
  0xa4a6837ca59fa28bU, 0x91a086949f95979dU, 0x95938e8c89808784U, 0x678497959594a09cU,
  0x99a5aaa19c927577U, 0xa28aa4909cad83a6U, 0x848378a3aaa29388U, 0x96a09883989c9aa1U,
  0x91998fa398879a8cU, 0x9e879b8f9f9c8c96U, 0xa7878b9584a18f89U, 0xa4988d8d9ba08a8fU,
  0x98ab8f8aaf819c96U, 0x8aa5a7a28394809fU, 0x8d8d8187849193a0U, 0x8d7e989595838f8bU,
  0x9d82868c9d89979aU, 0x8a9a9d9ba09e8e6cU, 0x8388b3928c92978bU, 0x889c9d828f8f8282U,
  0x8f969d8d9d8a8e80U, 0x7e93908d90859285U, 0x957f8b9289967f96U, 0x9890948aa29f8fa5U,
  0x898c9f968b9a9b92U, 0xa38ea49ab4a79590U, 0xa68d928a92848990U, 0x949da2a2989285a7U,
  0x8bac908888949389U, 0xa0929c9f90a48896U, 0xa09197958a9b8177U, 0x8b9180858aa39895U,
  0x9eab91a19f98a3a4U, 0x90989e8b9086a680U, 0x919f9ea99ea2a1a5U, 0xa588857aa0939f94U,
  0xa59ca5a19f9c9b75U, 0xa7a08b8f91a88b99U, 0x8380989f8a96a79cU, 0x96998b9e9b96969fU,
  0x9c9a989898959c85U, 0xa37f95a4a9927ea7U, 0x9184ad8d98918198U, 0x85a6878286877e8eU,
  0x8f9aaa988d94aa8fU, 0x9397a99fa0858393U, 0x859d99a78f9cb188U, 0xa47b95809391a397U,
  0x8c8d919a7a8d8b93U, 0x998d8a8f7f9aa78fU, 0xa594969290929598U, 0x85958e81aa91a0a7U,
  0x8692a89296859f8aU, 0x93a69595949ba794U, 0x999fa0a28b8c9099U, 0x9d908e9b909aa092U,
  0x9ca78b998c969f95U, 0x8b7b7a98838b909bU, 0x8b8c8f809385ad9eU, 0x9c9ea3a49ca296a8U,
  0x969d8d917f99999aU, 0x86979b9c9c8c8486U, 0x908f979e89809fa8U, 0x8b838290a08d9888U,
  0x849796897e848884U, 0x8091a4909d938c94U, 0x9b8497869d92978dU, 0x8d8f978485969f98U,
  0x87809285a2a79a92U, 0x879c9a95a28e8396U, 0x807fa2968f9ea0a1U, 0x7f9c8084a19d839dU,
  0x95849da39b828c97U, 0x929d9b848b9d8998U, 0x8886a28a8b8197a0U, 0x9b98a193999d929fU,
  0x95a19582998f838eU, 0x9c85a19c91837f8eU, 0x898d81a2a3849f82U, 0x9da59a90818a869cU,
  0x928b99958497a084U, 0x8b8b83849f9d959cU, 0x83878b88868fa685U, 0x8f98a38e878293a4U,
  0x9aa282968b9d8a9eU, 0x8ba0a69b90809887U, 0x9a91a2a69c8d8c88U, 0x929e9aa1988e9796U,
  0x8295868898829c81U, 0x90969a887e84948dU, 0xa48a8a9480a6a29eU, 0x9fa689878f8080a3U,
  0xa38f9e8795a4948cU, 0x89819b8d9f9c8292U, 0x879d8f8d9790a18fU, 0x90a5a6938084819bU,
  0x8f91a19892929390U, 0x8b9090819f99898eU, 0x957f8c8e908a838cU, 0x9585808d9591a090U,
  0x9488a09294a083a4U, 0x8c8b9e9b9c978d9bU, 0x9aa6888d9f81968dU, 0x9d8d9799868aa0a6U,
  0x9d8694849f8d82a5U, 0x8da28f868e889991U, 0x8d8e8aa184908a86U, 0x859da6a4827e848eU,
  0x9d979296a27f9da3U, 0xa5838882998a9ea7U, 0xa1a1a49c8798a58fU, 0x929d87968d9fa797U,
  0x9c97878e8ba2a594U, 0xa08d9f808ba1a697U, 0x869586998da88d88U, 0x84a794939086939bU,
  0x7f958a8e9e95869aU, 0x7d9298928e7d8b8aU, 0xb1968f8ba0838e97U, 0x93ab9e8e929c9097U,
  0xb08b9c8493a78c9eU, 0x899e9887a0a8a7acU, 0x9b919a91ad958a8fU, 0xa3a1a9ac85899c8fU,
  0x8f89868f87888ba3U, 0x8b8d96a39388a4aaU, 0x8491819b8ba69292U, 0x8582898d90848fa0U,
  0x8693a986b1978a8dU, 0x8aa193858b7c8e92U, 0x9f9baf9b859da68bU, 0x7f928d89a2a69c97U,
  0x919b80a89ca08375U, 0x97a18ea98d97868cU, 0xa9858c8a88a19688U, 0xa184ab938ea0859eU,
  0x99a48c8e96818ea2U, 0xa2a4a4a38fa7998fU, 0x8e929c8a79a78d9dU, 0x7e84a38d82a58fa3U,
  0x9399979a93a19da6U, 0x78b5ab8084a0a388U, 0xa489a0aa9f7dad83U, 0x918fa4928e99958dU,
  0x9c80a39a8d9185a3U, 0x9d8f9785958f8c85U, 0xa9929d94988e9292U, 0xa6aa93a1a6a3878bU,
  0x9e8d8e90aa9f8c85U, 0x8a8c8a87aa7787abU, 0x9286aaa29e788ea3U, 0x97967ba49c9b9691U,
  0xa1ab848f8a7f7aa2U, 0x9792908e968b9295U, 0x8f9ba3a4a4a4a8b7U, 0x809ea4979ca0a9a9U,
  0x929baba38d969e7eU, 0xa7909daf87a182a5U, 0x92959fa98d8c9899U, 0x8f89988f8f99a886U,
  0x8d83838887919195U, 0x9c869ba4a5939d95U, 0x999299969e8d8690U, 0x909b87968e808aa2U,
  0x879a8e878fa4838aU, 0x8a9287a37f869082U, 0x8297968894849e93U, 0x95829f808f8b8e8cU,
  0x8b96849a84908395U, 0x91889f90848c8091U, 0x9784989a869e8587U, 0x8b9491969d938c8eU,
  0x8e939484a49695a3U, 0x8393a48c9f9d9a99U, 0x9f8c9b96a09483a0U, 0x9b899c8f8f8b8188U,
  0x9e8985a5948a8c87U, 0x83819fa392827d83U, 0x8e99849086908680U, 0x9381a19493977f87U,
  0x819d9e868aa28e9aU, 0x97999e968098849dU, 0x849f8f8e9da49980U, 0x8680a2858c87a19eU,
  0x8fa0908e96859890U, 0x848d90878390a48eU, 0x9c978ca490938d80U, 0xa1938f82a49fa1a1U,
  0x9b8897a693828d9dU, 0x948e8a8e9d8188a3U, 0xa489848d99838a9aU, 0x8e937e97998aa18cU,
  0xa19889928ca2868aU, 0xa0948195948da29eU, 0x948f97928a8f8da2U, 0x838d938ea2a383a3U,
  0x86a195978d9b9ca5U, 0x9da19498908f7f9bU, 0x8998a296a2a28a87U, 0xa48da190819c94a5U,
  0x85959a8ca3a28591U, 0xa1a29e8399a491a3U, 0x97a17e8184a6999fU, 0x857f9198a4988a95U,
  0x9d8993938ca7a29fU, 0xa08180a29c88a1a7U, 0x8d89a094a081a589U, 0x9c8c80a19791829eU,
  0x90818785a5868d85U, 0xa1928281a3998c81U, 0x829a9885789a92a2U, 0x869c92909e8fa7a0U,
  0xa0a1987ba199a5a7U, 0x9997a194a78f9e84U, 0xa586909282a0a388U, 0xaca2858eaa9985a2U,
  0x978e73a3a395919dU, 0x7ba6b29f815a6a87U, 0xa087819c849a9c91U, 0x9c8e958c8b85998bU,
  0x849a9c8490889784U, 0xa695989299929893U, 0xb29e9c8c90a1a282U, 0x8d929890a186a883U,
  0xa6978f928a9c9991U, 0x84a48a897b959c86U, 0x8799977f9395ae84U, 0x8c8c978c9a9ca897U,
  0xa29c7f8aad89888bU, 0xaea2969a8d8a7ea3U, 0x898aa6aa97b39b83U, 0x90888d929c9e9b8fU,
  0x8793a18caa9ca18bU, 0x938da79e859f849fU, 0x937c8f97958a7985U, 0xa290859c84639860U,
  0x969a94878d9186a4U, 0x7aa1a3a19a8b7f79U, 0x74849d8da38ea29eU, 0x878e9d9da0968f86U,
  0x79817a93a688a59bU, 0xa98ba68287988f91U, 0xa2a68e8f91879a8bU, 0x9e85a7a48d8d9189U,
  0xa6778a8598a98e89U, 0x9472a6a6909196a8U, 0xa57f899d969794a1U, 0x86afa68c97a48e91U,
  0x9e939194858993a9U, 0x9d9ea299a98392a6U, 0x9a9c8794849faa81U, 0x929978879d8e9b93U,
  0x918497858a848a9dU, 0xb28b887e94957aa5U, 0x8285a29994a5918aU, 0x929a9187a18da69fU,
  0x9daa92989a9895a5U, 0xa292a992948f979eU, 0x6b6f94938a9ba49aU, 0x93a87d7f9a8ba98aU,
  0x8083a294a4aa9697U, 0x958099947a8d9790U, 0x8385a2949a929480U, 0xa39c9da3918f848aU,
  0x9f8d8ba2ab7d8883U, 0x967b919898828a71U, 0x8591978491a09b7eU, 0x9991919f9da59c91U,
  0x859a9bab91ab9d86U, 0xb284b77e879e958fU, 0x879d7f9b89858b98U, 0x83818e8ea28c938eU,
  0x69958787a09f7b86U, 0x99858e95937cad8bU, 0x7d8e8b888f869599U, 0x9197937c8c9d8370U,
  0x8485a4a99d7d9587U, 0x908a97a08e858792U, 0x8087a08b7a988793U, 0x95a2a4949d8f9da0U,
  0x8fa67785a18f9c7dU, 0xb3939889a6a2917fU, 0xa5a79d71a99f85b2U, 0x88879f85af99b177U,
  0x999e93a88b848999U, 0x9c906e898acea485U, 0x93939790998688a9U, 0xa0a39c8c9590887bU,
  0x93848e8e97a08886U, 0x858d8e99966e9b85U, 0xaaa78a9a8a947f8bU, 0xa179768d9e9a8ea5U,
  0x8b97988993a99d80U, 0x93889aa48d8d8b8cU, 0x7e929a989e947f90U, 0x99a19385999277a0U,
  0x92a78e9e868b84a7U, 0x889ba59b9996a482U, 0x9c87a58b7aa79f8cU, 0x7ea9869e85a49e80U,
  0x96979e92969a808bU, 0x85a0978c9c959a82U, 0x8e828a958d8fac8fU, 0x9a86a28caf9e858dU,
  0x92aa8a85a897a083U, 0xa18ea6a196959d7dU, 0x77aba1848d9d819bU, 0x92838e7b90919b96U,
  0x7fa6a79d9881958eU, 0x8f89ae8f998e8290U, 0x93699190899ba19dU, 0x7f6c977e6c838081U,
  0x75778d90a9848368U, 0x948fbc9f9da090a1U, 0x8a919d949ca1b38bU, 0xa3778289919570baU,
  0xa09885a47e8696abU, 0x858667ab71a58a76U, 0x8e819c947a818268U, 0x9fbc7b8e6f9480bcU,
  0xa87c7d897c909495U, 0x875b8b83a4a6838cU, 0xc48387919b6d8a8cU, 0x9f89b67a818b8d9dU,
  0x8f74a4a98e707ba8U, 0x938a836eb6b1979aU, 0x8d8ba0a298777777U, 0x8c877a9abc848588U,
  0x60a5a9a57fa1849bU, 0x898d8898a3839da8U, 0xa092959a996b867dU, 0xab9a7c81877e9185U,
  0xa4a97e98a199acbfU, 0x72a3a273a6788170U, 0x94a2aaca9b849997U, 0xa39f9d8088a1828fU,
  0x6db5b08d909d949cU, 0xa79c9977868c969aU, 0x9a9680779986945eU, 0x5a8772717f6a8a8aU,
  0x9e919d9496828771U, 0xa0a867a6a4a67b93U, 0x708b93938ea08a71U, 0x8887a090a9768e98U,
  0xa9969d9480a28991U, 0x9793a57e888da09eU, 0x938e84888292999dU, 0x9b998c858c878687U,
  0x97ad789389ac8881U, 0x70a08b75989e986eU, 0x809d9e9c838a8492U, 0xa7a0ab9a85988e61U,
  0x88819a989b9093a2U, 0xa49d789892948d84U, 0x859590a0706b9684U, 0x696983928e75936dU,
  0xd99585918f907890U, 0x899ea2be7d8a837dU, 0x70828b83948c90b1U, 0x8e86a59899749096U,
  0x847998938d58b097U, 0x6590959888aa9d8dU, 0x9c9077ab57907e92U, 0xb69e9d7f7d7c758cU,
  0x969f78888196737dU, 0x8c75a791889d9090U, 0x7d89a1829d647d78U, 0x9294ab8b8288a482U,
  0x81779d77849b9d83U, 0x8381769d66888c7aU, 0xa4869c7c89a88770U, 0x8a768294a193a898U,
  0xaa9a8b8a8d83998aU, 0x85c28e659896ba82U, 0x889b8f8b909aa188U, 0x9985869c88838c86U,
  0xa096988c87a3a996U, 0x6e77807e7b9c8a82U, 0x6c80859c979d967eU, 0x669c9d94947a8c89U,
  0x7087a89aa98282b1U, 0xba86968f88857397U, 0xa3968c9ca68f8c85U, 0x719d92a17e99bf8eU,
  0xad8789709ba18489U, 0x948c978f9780948dU, 0x6e87c8918a9790bdU, 0x8f967d8ea28e9f91U,
  0x967c8a869390a47aU, 0x96968589a3a88786U, 0xa69c92a294927595U, 0x70a8a0a1ba8da174U,
  0x95a57099a0916f97U, 0x8a8a94808b949fa3U, 0xa2947a8176a19ca0U, 0x9b8cb18c9c89797eU,
  0x88a198977e908f8aU, 0x8d80a7769ea194a2U, 0x869fac8a776f8b94U, 0x989e8f7e9abe7991U,
  0x61949d879b808397U, 0x8bab85838a9e7987U, 0xb6a49d7c95956f7eU, 0x9d9c8673979da787U,
  0x61ad7c996e7f9a61U, 0x6d77908bb37fa196U, 0x757ca1959ba8648dU, 0x837ca0a79c8383adU,
  0x859c96955f828a80U, 0xa6738d91a48e927eU, 0x99837e9692937f87U, 0x8a8e8ba08c85958fU,
  0x879aa19b9f9f959aU, 0x97a18a7f818b9895U, 0x99a1b3a2929d7b8bU, 0x7da98a8c9e958b98U,
  0x838e96aa7a9ea5aaU, 0xb6a38c9a8e9d9a91U, 0x7fa399a9938b99a0U, 0x92a09e967ea7ac79U,
  0x84859a876a9d9a92U, 0x82a29f909b98a9a3U, 0x7a9d759e7e7d7189U, 0x86ac8195a3a691a1U,
  0x9c8aa48686768d9fU, 0xa4a29396aca47d92U, 0xa289849bb3749997U, 0xad96a09eb38c9189U,
